node {
  name: "Placeholder"
  op: "Placeholder"
  attr {
    key: "dtype"
    value {
      type: DT_DOUBLE
    }
  }
  attr {
    key: "shape"
    value {
      shape {
        dim {
          size: -1
        }
        dim {
          size: 24
        }
      }
    }
  }
}
node {
  name: "dnn/logits/bias/part_0"
  op: "Const"
  attr {
    key: "dtype"
    value {
      type: DT_FLOAT
    }
  }
  attr {
    key: "value"
    value {
      tensor {
        dtype: DT_FLOAT
        tensor_shape {
          dim {
            size: 1
          }
        }
        float_val: 0.1606178879737854
      }
    }
  }
}
node {
  name: "dnn/logits/bias/part_0/read"
  op: "Identity"
  input: "dnn/logits/bias/part_0"
  attr {
    key: "T"
    value {
      type: DT_FLOAT
    }
  }
  attr {
    key: "_class"
    value {
      list {
        s: "loc:@dnn/logits/bias/part_0"
      }
    }
  }
}
node {
  name: "dnn/logits/bias"
  op: "Identity"
  input: "dnn/logits/bias/part_0/read"
  attr {
    key: "T"
    value {
      type: DT_FLOAT
    }
  }
}
node {
  name: "dnn/logits/kernel/part_0"
  op: "Const"
  attr {
    key: "dtype"
    value {
      type: DT_FLOAT
    }
  }
  attr {
    key: "value"
    value {
      tensor {
        dtype: DT_FLOAT
        tensor_shape {
          dim {
            size: 20
          }
          dim {
            size: 1
          }
        }
        tensor_content: "\372\030\267\276\177\016K>\256%H>>\273\354>\017H\303><\204\346\276c\356\365>\202\206x\275\030x\261>\014\247\212>E\010\317>\254s\307\276\327\200\357\276\373\366\001?x\n\214=U:\027?\0018\262>\275P\313\276Q\261\016?\355\337\002\277"
      }
    }
  }
}
node {
  name: "dnn/logits/kernel/part_0/read"
  op: "Identity"
  input: "dnn/logits/kernel/part_0"
  attr {
    key: "T"
    value {
      type: DT_FLOAT
    }
  }
  attr {
    key: "_class"
    value {
      list {
        s: "loc:@dnn/logits/kernel/part_0"
      }
    }
  }
}
node {
  name: "dnn/logits/kernel"
  op: "Identity"
  input: "dnn/logits/kernel/part_0/read"
  attr {
    key: "T"
    value {
      type: DT_FLOAT
    }
  }
}
node {
  name: "dnn/hiddenlayer_2/bias/part_0"
  op: "Const"
  attr {
    key: "dtype"
    value {
      type: DT_FLOAT
    }
  }
  attr {
    key: "value"
    value {
      tensor {
        dtype: DT_FLOAT
        tensor_shape {
          dim {
            size: 20
          }
        }
        tensor_content: "\237W\373\274P\253L>\250\363Y>\000\000\000\000\320\2733>eJ\"\274\010:.>\306\322\356\275\204 2>\000\000\000\000\177\235C>\000\000\000\000\200J\202\274\0356.>\000\000\000\000#\024->zRS>jBD\274\307\273->\2414z\274"
      }
    }
  }
}
node {
  name: "dnn/hiddenlayer_2/bias/part_0/read"
  op: "Identity"
  input: "dnn/hiddenlayer_2/bias/part_0"
  attr {
    key: "T"
    value {
      type: DT_FLOAT
    }
  }
  attr {
    key: "_class"
    value {
      list {
        s: "loc:@dnn/hiddenlayer_2/bias/part_0"
      }
    }
  }
}
node {
  name: "dnn/hiddenlayer_2/bias"
  op: "Identity"
  input: "dnn/hiddenlayer_2/bias/part_0/read"
  attr {
    key: "T"
    value {
      type: DT_FLOAT
    }
  }
}
node {
  name: "dnn/hiddenlayer_2/kernel/part_0"
  op: "Const"
  attr {
    key: "dtype"
    value {
      type: DT_FLOAT
    }
  }
  attr {
    key: "value"
    value {
      tensor {
        dtype: DT_FLOAT
        tensor_shape {
          dim {
            size: 50
          }
          dim {
            size: 20
          }
        }
        tensor_content: ":\274\254\275\366@D>\177}\352\275s_}=\336L\264\275\343{k\2769\226\037>;W,\276\005[\035\2754\211D=\307\030\213>\\\027\254=\016\330H=\240\230*=&\225N\276MF\366\275\"Mp\276ri\200>\177\226\212\276\\\225\255=\000\000\000\000z\233\224\275\026\263\343\275E\263\000\276_bo=\276:\212>P\300z>w\305C=\300}G>\230\224\003\276\274\223\207=\004\260\257\275\3400\220\274@=\233=\224\375\226=hg\010\276\024\231d>\340\3325>\202\344\211>R\317\335\275\036\251\266\275\236\261\021\275b\031M>\"*z=h\242\210>\017%\212\276\nOY=z\004\333=m\307\177> dv>\371\017m=Jx\013>\360^c\274\311Ad\276\304\321\037\276\0319K>\267l_=\325\222g>x\203\250=\344(4>\035\316\224\276c\2013\276\211\005\354\275\000\000\000\000B\251i=$\327\r\276\222\034\233>{=E\276+@\237>\000\000\000\000\346\005f\275-S;\276S\022[\276\260a\205>H\244~>\334b*>\n\253\035\276\213x\300=\313gm\276\312\317\027\276(\340z>\255T\033\274\000\263\260=\350&\305\275\270h\373\275|\013\'>,\307\210\275t\357x>\017\260!\276\200\'i>\\\362,>\000\000\000\000B-\203<\254@\344\275\000\000\000\000\307h\030\276\374Xz=\000\000\000\000D#k\276TxF\276\032\224B>U\2273\275\302=:>\300\\\210\276Qhk=\344\'l\276\025\337X>y]\005\275\217\246g\275\204s{>;TM\276\001n\025\276\203\372\221\276w\0362>\021g3\276\251\230\\>k\020v=&l_=\034\370<\275\240\200\272\275\334\223\\>6\307\244\275\304\212\216=J\213\201\275\326\2260>\334&\003\276\320\215\354=\225\020\223<\336,f\276\"?m\276\000\025\236=\230\307\255=\000\000\000\000Q\376e\276\0208\210>\305\345`\276\0344\236\275\024\301n\276\3728\213\276\360\240\243=\025\027\323\275n$\200\275\333/b>~\235\200>\305y\362\275\364\333\226<\317\204\\=4vu=&6\227>\211\277g\276\232\213\001>\300_R>\341\2635\276\022\3643\275\370\260O>\\\245\026>\222g\035\275\020\265w\276H\344\312=\270\341x>~\372W>/T\247>\000\356\225>\000\000\000\000\'r\252>\212\247\262\275\336\262i=\211{|\276S\256\220>\320\202\204\276\'nv>@\311\374\275\360\n\232\273-\327\271=*\373\177\276\003\204\231\273\027\344*\276R]i>\000\266n>\036/\231\276\274\310 \276\323\225\027\275\275Gm>\242\250v\276\2038\205\275\302\331K\276\316\001\036>Qo6;\020\326o>C\370:\275`\025\223>\254\367\217\275\027)\226=\227\312\257>\000\000\000\0002 \302=Gw\237>u}\017\276s\362\300=\021\216J=\034Z\202=V\255\211\274I\201\010;\225J\342;\221\211`\2769\276\276\271AC\026>\371\254=\276\334k\351=Xr\347=\003\301M>t\231\251\275\241\352\372=\264.\255>0m\367\275\313K<=\313\224\240>\027\035z\276\202\227%>\212d\010>;,\212=\246\017T=\327<\030>\344IX>[\000\220=H\010\017>\314OV\276\235\255}>Z\255V\276\204\016A>?\037\253\275\312\334\317<2%t\276@\301K\276@n\022=\013\007\311=]?\031=\017y\312<\323P\177<\353\332\223\275\3032\233=\244\374D\276\345\243I>T\3470\276\372\240\260>ip0\276\024\0253\275\204U\003>\030\331\252=\2705\242\275\030x+>:\254\n\276\376\317s\276\r\002=>\34209\276}H\034<\354\207S>\2045B\276\277\312\243>sW\200\276N\235]\274e5\271=\331W\257=\340{\355=\266\024\215\275\022pH>i@\034>\237\352\002=Qx!>x\n\002>\'a5>\036\206-\276\302\005\022>\371\n\363\274\310\003\013>&\324\r\275\241o\270=\"a$>rF\355\273\364o5\276\224\3271\276\377/-\275\004\354\006>\000\000\000\000\000\230\221\274\344\364!\275\254\257\010>f\360\370=h\333\253\275\345\r\217\274\233L\213\276\000\000\000\000\364\310B\276&\212}>0\237B>\226T\214\276\221\351\264<\000\000\000\000H\203\327\274$\343\274\274-\231.\274\315!\240>\347\242\263=\014\033V=A\031!\275\230\324k>\261\'\204\276\025\340\223\2754,\213\275\266\000\\\276\367\t\275\274B\335\004<7\021(>\217\252\215\275\032\037\203>\t\340\037=\300\001\256=b\353\025\276\337C\303:\307\344W\276\254\354\003\275d=\270=\361\366\203\276\034\273\306\275P\260\007>\362\316->d\324\177>t~\210=LP2>\010\256<>S\006\037\276`\212\210>a\352F<\362\351t\275\350& =FH\262\275\350B)>+\0029=\034y\300\275\274,\200\2753\025\234\276\372\207\241\275\216\377@>o\316\027\276\"\027\312>s\3178=pDi>u\206\030=\350\336\216\275\270\030\310=\035\342\265\275\000\000\000\000a\002\215\276%\320G=\236\0257>\264)\260>\013\210\035\275\275gO>\341>!\275\302\305s\276\220p\'>\364\300N>8W\340:\340~0\275\210Vs>.!\307\275`\232\017>\204{$\276\002I\005>\2467\036>R?5\276|EM\275\301\307\t\2762\222I\276L\250\210>6\267?\2768\n}>\356\303I\276\224L\307\275\325\215P\275\356K\303=x\275\327=\227O\221> \344w\276N\215\270>\000\000\000\000\263!j=/\204e>o \223>\350\305,=%\244[>\0279r<$\345k>u\010\235>\272\257#>\307\272\013>\210\375.<HR\274\275\3563\233>\232\326\221\274\370Bv>\351\320\247\275<}8>:\325n\276\301\r\032=\362GP>K\177\262=Z\356\014>M\205\353=\251]+\276IHD\276\254\332_\276U\251e>\353\335\341=\270X\020\274\022\311\030>C\254\255>\203\365G>\213\262\036>G\301L>\304\334\344=\206\200\r=3ae=\\I\020\276\304\311\225\275\326)\255\275+\237\346\275\303-P>\217\267\335<n\302\033\2743\342n\276\016k\021\276\037\365J\276\356\007\225=\007\264>=\227\001o\275\346\220S\276\330\341Q>\333\313\336\275n\215\303\275\346J\000\276\243\262\025\276\232\377Y\275\214*y\276\000$\024=h\274\236<\210\253\033\275\342\260\224\275\330\353$>\256\272\305\275\364g\223<.\375C\276\2145\325=\024{\030\276x\023*\276\276\311\010\273z6&\276p\323?=\000\000\000\000\266\027\r>\003-\320\275\335\317\221<\330\225+>\310\332]\276\204\227\212>\313rK>\016L\241=?p\236=\223P\225>\354f\254=K\344\207>\262c;\276\325H\016>p\275\261=\000\000\000\000\327\373\233>\351zy>l\260\204>\334\326b>\270\300:>K\257\333\275\332y\037\276qd\345\274\314\270\225:\022|\361=\013>\034\2760J\276=\312%\212\276\005Kx>3\025==\315 \262>\000\000\000\000`\307\276<(\372\245\275*w<\275\032\3612\275\004\227w>\005p\270\274\001\025\022>2\206\001\276\374\370c>\2469|>\227;z\275\2501}>\336\227G=\266\255\253=@]K>\233\232\274<\234\213\024>\2359=\276\354\242!>\330\367\337=\264):>\237\006\216>\360\225\226=\271\273p>\350\221 >\255\034\343=g\261\256>\340\350\273=\224\255A>_3w\273T{h>\234\344W><\204\023\276\262\002\211>\2000G>\300H\261\274\260K\275\275\200\375T>\000\000\000\000t\2127>\232\013\207>\324J\212>P\314%>\000\000\000\000\310\366s>\014\022\315=<{\200>\330\215h>\250\253%\276\025}%=\000\3458\276 \037;\275HQ)>\306~@\276\"\223X>\355\\m>\017\344,=!\245g\276(\352\370\275\240\320\322=\3375X\275hm{<^\333?\276\017\026\363=\224\314:>\354\032\204\276x\243\260>L\373\201\276\000\000\000\000\200\342\332\274\322T\213\275\026\253J\276i\201\200\276\274\024}>\000\000\000\000\260\203\r\276\000\000\000\000\000\000\000\000\032)y\276\3226E=\2143L>U\250\201\276\234\307\210>\262\243v\276\200\231\304\275\3105\020\276$\213\315=\3604r>\253-\203\274gNl>\222,c=T1\007\276\224\320\303>\334\247N>(\324\240>\177D\302\2747\3312>\220{\233;u\2402\276\010\312l\276\347~+\272\241\305\262\275DH\213\275!\334\235>\033\221b\275\014\225i\276:\251A>\242\014\271\275\232\373\213\276\217W\017\275\310\273H\276d\331\200>\211$\202>\023\006~\276\311\353\365<\030\242\016>\264mj\276y\215\363\274-?\030>,\004\361\275\224\276\231<\315\330\025\276-\321\372\274\315\377+>\3659=<\246E\356=A\363Y\276b\340\255=\322\357\275=mKj<\340\306\027\276\035(8=@0\215=^\010\003>+i\223>\255\301\201\276V-Q\276r\022\331\275B\013\306<\000\231Q>;\021\373<\360\337\354\274\270\256\205>\321\336+>\371\367\021\276f\204\345\275\302l\256>\007\264\001\275\305}\207\276i \321=\262\013\036\275\000\000\000\000<e5>\263\200\036\276\363\270\266>\347y\n>\223\234\216>\3346w>\3654\206=B\351\013\276\227K\266\275\257\314\256>\000\000\000\000\203JL\275d\022\332=xIU>\207Zb\276\325n#>\365\032\246\275\035\272\013\275\213\373E\276\234\351\204>\005mT\273\010\201\222=u\007\210<w\3568>\262\274\215>\033\020H;\340\305\003\276\364f\224=u6\'=y\307\221>\337\371=\276W\362\226<\277\000\177=\013\tj\275\333H\255>\346\375I>\022\271\215\276W\234\003\276A\240\022>\207\000\207\276\302\\\254>\'\206\206>]\243\034>V\003%>J\025\223>@\263\231=\032\032\344=H\257\263=\036\020}\273J\233\207>BI\3539\227l\021\276+MI>\2135q\276\t\025\026\275\321.y\276T\374\235\276\"\3437=\377v\020\276\234H\301=(\322>\276\364\231\356=^U\212=\313\236\352\275=a\221\275Le\354<g\346\214\275\316\021<\276\002\256\341\275\372z\006>zz\211>\355r\243>\337WY>.\221\233\276\313\234\247>\363K\021\275\273\347q>\213D\320<\263\257\315\275\340\326Z\276{V\261\275i\271\302\274\311Qi>\232x#>\200/\226\275\250=]\276<\005\226><fy>Av_\275y_U>\214U\225\274\323s\251>\373\246Z\273m1\261\275|\2255>\367\222[\276p\222\254=\243\231\217=0]\025>\216\n\266\274cUO\276\324\204\224=\222\356\207\276\240\024\010\276\273\003\013>\240\245\271\274*\013N\276\340t\030\276fu\303<\177<{\276\204\366B\276\232\367\220>\374\250<\276\013/\213\276\220A\362\275\002\031\314<\000\000\000\000|?/>\014X\302=4\234\324=\000\000\000\000\n\367\250\275\0305U>\222.\024>$[\025>j\006\037\276\347\331\211\276\\\255q\276X\311y\2765\244L\276\3306y>\026\201\247\274\022\314%\276\"\005\005\274jE\276\275\314\2171\276}H:\275\005\263]\276\201\3733\275x\223\036\276x\210\024>\344\370\204>\306:>>\n\320y<\274\232\210\276\200\270\264=\036\220\">Vhj\276\317\014T\276\274\214\277=\210\004z>\370v\361=\204\022>>\362\206\261:<\212\210=\032-^\276y\341\200\275\341\242\203>x\205e\276\"&N\276^\'(<t\034\323=\331\357}\275\324I\214\276=\375\202\276\250,r>\356\033:\276NoR\276\2345\351\275\253\327\242\275\004\211&>\211\254\266\274\233p\251\275\362t\206\276\3213H>\t:\264=\356}\006>\230k3\275\310\007\326=\204\245~>\362\265?>\200\315\027>\205q\210\276\024Rq>\222\006\202>f\226\356\275\327\334F\276\234\361J>\254`\031\275\306\313w\276\203t_\276~U:>\252\356\204>\220\261\016=\022\220\377<8 \260\275\313WS>\021|n\276\00371\276V\373\256\275\232\223\203<\000\000\000\000\231)y\276\375\030<>\r\327\">(\362\203>i\017F\275X\216\207=.\271\t\276zw\305\275\034\272N>\373*p\276\333\013\276=\304\207\347\275\027\310\007\276\307\326g<K\317\010=\274\036!>.8\365=\375\016(\276\030i[>=&=\276\013t\240>\363z\213\275\226\245]>\217\276\n\276s\226d\275sQ\030\276\362\266\016\276[\367X>8\243D\276\2168{=7\010\334\275q\007\230\276sgY\276JHN>\244\353H>\260\246\201>\357,+\276@\366\n=2\354y\276_F\214<z\030C\274\244`\202>f\257\365;\000\000\000\000\244\010\301\275\nk\266\275\216\254\331\275\006\025\204\275\334\264h=\230\010z\276d\217M\276\3553<<\234\270\273=\272\005\313\275T\'{=W\262\215>\220\251\030>\202KE\276\267\217t=\342\002\375=\006Vi>+\253&\275\307uq\273\000\000\000\000\341t\247\275\024G\\=*\331i\275\034\225\202>\034\020\370\275\033\'\247\275\3605^>q\367\214>\347\311\254\275\351\\\257<\340\314n>\004\3170\275\320\320\365=f\321\366\275\335S\231\274\314\031^\276\334\320\210>\310\010^>\212\330V\276\350\005G>\026\300E\276\304\230\330\275\364\024\313=\372\316}\276\000\000\000\000\366mY\276$\226\347\275\232Wg\276l\215\320\275\300\2363>\000\000\000\000\362Rr\276D0+>l\036i>R\357\200>\276\256\t\276\370\323\036>H\023*=\370q\204\276\034\272\003\275\034\344R>\2622?\274r\363->\000\000\000\000\260\304\014>8T\021\276\014/!\275\202\315\316\273Z\315\025>\000\000\000\000$\232I>\244\260\'>\000\000\000\000\030\035d=\032__\276\240\346\177>\2340\221\274d\177&>\334\246\206>4\024t\274\264.\374\275Jp\'\276\323\223\025\276r\020\037\276^\333\255\274\000\000\000\000\344!\205=\"z\323:\034X\346=\004\303\'\276\301\220\210=\315\351?\276%\353\240=|\321s\276\212J<\276\333v\205\2753\3075>\270\000`>g\034?=\220\215\215=\351f;\275\222W\017>\262\3470=\263\035\217=\036\000^<\364\207e>|S!=\223\333A>\257\371\263>\305\221\232\276"
      }
    }
  }
}
node {
  name: "dnn/hiddenlayer_2/kernel/part_0/read"
  op: "Identity"
  input: "dnn/hiddenlayer_2/kernel/part_0"
  attr {
    key: "T"
    value {
      type: DT_FLOAT
    }
  }
  attr {
    key: "_class"
    value {
      list {
        s: "loc:@dnn/hiddenlayer_2/kernel/part_0"
      }
    }
  }
}
node {
  name: "dnn/hiddenlayer_2/kernel"
  op: "Identity"
  input: "dnn/hiddenlayer_2/kernel/part_0/read"
  attr {
    key: "T"
    value {
      type: DT_FLOAT
    }
  }
}
node {
  name: "dnn/hiddenlayer_1/bias/part_0"
  op: "Const"
  attr {
    key: "dtype"
    value {
      type: DT_FLOAT
    }
  }
  attr {
    key: "value"
    value {
      tensor {
        dtype: DT_FLOAT
        tensor_shape {
          dim {
            size: 50
          }
        }
        tensor_content: "T( \274\000\000\000\000\033\325R>\246E\025>\000\000\000\0002dk>\000\000\000\000t\271i>)=Z>>\333\\>*bh>\000\010\253\275\366\027x>4\225;>\360\270\030\274\231\361.\275\000\000\000\000\321s\203>\000\000\000\000\350\376\200>I.6>\260\027!\274\000\000\000\000\240U[>9\231z>&\340]>\000\000\000\000U\3266>\000\000\000\0001V\213>\375\027m\275d5[>\t\001X><\263r>\203\013N>\232\326<>hQi>\001\264\366\274\000\000\000\000\000\000\000\000\211\213\323\273\000\000\000\000\261\257\344\274E\367Y>\000\000\000\000\010{X>\000\000\000\000\000\000\000\000\000\000\000\000\275Cf>"
      }
    }
  }
}
node {
  name: "dnn/hiddenlayer_1/bias/part_0/read"
  op: "Identity"
  input: "dnn/hiddenlayer_1/bias/part_0"
  attr {
    key: "T"
    value {
      type: DT_FLOAT
    }
  }
  attr {
    key: "_class"
    value {
      list {
        s: "loc:@dnn/hiddenlayer_1/bias/part_0"
      }
    }
  }
}
node {
  name: "dnn/hiddenlayer_1/bias"
  op: "Identity"
  input: "dnn/hiddenlayer_1/bias/part_0/read"
  attr {
    key: "T"
    value {
      type: DT_FLOAT
    }
  }
}
node {
  name: "dnn/hiddenlayer_1/kernel/part_0"
  op: "Const"
  attr {
    key: "dtype"
    value {
      type: DT_FLOAT
    }
  }
  attr {
    key: "value"
    value {
      tensor {
        dtype: DT_FLOAT
        tensor_shape {
          dim {
            size: 20
          }
          dim {
            size: 50
          }
        }
        tensor_content: "5\323\\>F\2125>b\263F>pn{\2761\322\342<\r\330\210\275R\021C\276\236g\230>\r-C=\010\333\257>\020>G\276\000\241H=\212\0338=\210W\205\276\3506 \275\344W\025\276\354\243\327<\334\0232>\032\312~\276%\3074=Fo[\276\000\205;>,\'^>\312\231\256=4\224\031>p*E\276\224\246?>\222n\212><~|>\232\233\224>\330U\267\275gg\200>\020&\237<(\317I\273\245\325\232>imk\276XO`\2764\200\222\276D\275\t\275xN\n=l-h\276\010l4=v\215?>fSx>D,\024>\027\375\225>\375\323\374\274\257\335`=@s\224\274 6\251>*\262t\276\362F2\276\341I\304>\222C1>V0#>M\330\270>\025\301P\276\300m\232=\032\356!>\203\036\200>\322T\006\276Y\304\036\276\263z29TY&=x\014\350<\336o9\276\250\177\310\2756\333\222>\355\214\'\276\235\275\221>\200\351\266<n\312\210\276\350\'\347\275\377\352\257>\323+F>al\213>FR0>\000\343z=\270\263#=\212F\273>S\361\245\276\265\351\255>\332\t\265\275_\354\320> \322\231>d_3=q\005\017>\032O\266=:\373\013>*\201\353\275\2203J>\354\236\002>\377\243\201=\232 \335>@rj>:\243\375\275\034\037X>\000\000\000\000\027iq\275\341x\212<\322\267\273<|\243_\276\001\335r>y\377<\276\212\220\004>\t\212\026\276\\\355\242=\244t\264>c\023\220>,\364$\276o\220\246>\035\300\025\275\2247\n\276\014\324\314\275~\376\243\275\204\315T\274\356\354\010\276l3\205>\026\013v\276\363\304N\273%!d>\244\007\n\276\342:r\276\262i\333=\025\322\330=\344\2705>\000\000\000\000l/\200>\366g\326\275\006G\270>\223\003\323\274\227\275\251>\345\205\005\2763\232\317\275*P\260>\334j\006>B\212I>\357!\266=\360\274_\276\246\234|\276\007=\211>%[$\276\022\220\231\276\032\326F=\312\'%>5\320\227>z\003\034\276\000\000\000\000\212\205\202\276\017\375\243>\3505\033\274\346=\274<\351+|=\235\303#\276\245\322\212\276\024\326\367=\2305h\276v\017=>\252\362\237>\332\034\357\275Z\022@>\243\312a\276\313|;\276j\253\236>\233S@=\367\375\352\275\335\332\250;\344\374\235>\206\230\343\274\311\035\262\275\032\000g=?\237\017\275:V\002>\221\354\"\276R\353=\276]pJ\276DO\024\275S\326\232>\306tp\276\036\010*\276\271\377\227\2752\217\224>\211Yu>\367\"\024\276d\333\254\275\371|z>\001\"\213=\207\275;>$\333e>\360G\273=\005J5\276\204|\274=\206\201\202>\037\305\'>\354\332\265=\031\375\205=f\315\267\275<\314\322\275\216\231^=\305\313E\276\360\214`\276\000\000\000\0008\337\236\275\'\256K\276ka\t<\r\211J>l\tG>\362\2207>j\345\265=8i\242>\341\270\237>\215ro\275\201\374e>\370[w\276b\006\220>*\310\026<\374\262a>\2141\345\275\005\266{<\013k\271\274(&\312=\210\342\204>\320\364\347\275\t\301$>\301O\374=_\003\237> \324\350\275\000\"D<\266\257A\276\007/!\276\2415`\276\353!\025;\307\036c\276\007\212\223<\342\210\337\274i\232J>Y\343\227=\036L\241\276\024\tB\276|\243\324=\031W\035\276\266}\017\274<\226s\2761b\240<\277O\214<\354\347\003>\235~\205\276\326\254I\276m\226\003\276\260k`\275i\313\007\276\236\350\007>\277\370\010>\\\005\236\275\264\247\\\276w%\274>\200\000\352=]\224\r>\r\037\237>\230oC\276\037\003\241>p\020>>\234\364\227>i\254\031>8\263g\276BX!>\260P\252\275\3161\037\275\354\3502>\267\005%\276*?\277=\232R?\275t\260\022>\023\310\232>\273\3010\276\266\203\267>\326\\\237\274\271\365a\276\314\256\330=\372\277\001\2760vJ>\273\343\032\276\222z\253=J\276\"=4\352\027\275:|R=]\360F\276X\3759>r?b=\004\202F>\3464$>\000\000\000\000\276Mr>S}\023=\212\020n\276?\257\347=9\241\203\276t\354s>\023$k\276,\'\376\275/?\264\275\260z\227=\026(\372=V_\202>\240\213b>\032%\236>\000\000\000\000\315\275\341\275l\255>>\277\002\206>w>\206>=u\237\275\350\020\265>-nb\276~)\365=\315\303\033\275h\016\001\275A`\302\275\310\027\227=\313\343b=\202)c>\306\'->\340A_>\235\375\212>[\313\017\276L\340C\276n\001\262\274\346\326\253>[\260\246;\275\200\346=0K7>\236e\231>\020|{>\032g\266>\273\030\223>\337\252\307=\273\355\350\274\262>\274\275;Y[\276\032U\t>5t\035\2762\025\211\276\330\371\225\276\361Ez>j5\237\275\367\336D>E\001\214\276\342oU\276\000\000\000\000\006`\305=\201\244\314\275\210}T>\222D\037>\021\017\n>\024\372\001>\204x\270>4B\202=\366\374\037\275/\312\317>\222\276k=\351\347v>\327\216\264=e%\331>\335\217\220>\306p\236\274\350\313\367=\304\013\211>\031\343\211\275\000\243\251=\353\205\315>\270\2074>\302aT>H\277\243=\361n\370\275\177\277\262>.\004v=$\374_>\303\020\017>\000\000\000\000Y\237\224\274\035A\026=\t~\367=\264\035\343\275<\355\231\275}\205\223\275e\341\312=\245A\200>U\027\332\275\034Ks>\204\255\013\275\261AQ\276Z\312\364\275f\374\351\275\2031\001>d\'p>\330M\275\275f\375\311\275(?7\276:e\026>\002#\255>&\373\016>+3\206\276&\007\212=\356\307\211>?\032\207\276\274\246)><\244!\276]\032\207=\244/\203>7PR\275\215\244\324<Ruv<D)\374=m\341.>$!\240\274\354\'\307=#\313&\274\261k\357\275h\221\'>U\314\">g:_\275?>b\2761\202L\276\322|a>\321\022\031>\363\023\253>\224>\235=\334\237V>\360\247T\276\371p\262\274w\003^>#\351\210=BO\343=u\245\005>\355\332I\276\023U\223>[\027_>\217\376f\273ZC\021>b\214V\276]`0>\000`\205\275\325-3>kF\025>\010\3708\276\264I\031>\210\266]>\327&\t\276X\265c\276\313\212\001\275\302\302=>m,E\275:F\212\275\221\265\007\276\017\301\017\276|\323;\276\311\024E=N\322u\2766\261\3308\251\032\212\276&\215v\276\334P\323\275\340j}\275\250)_\2763D$\276\230\235\300\2754\330\206=\306\234\017\276l\213/\276\334\240\000>\014\370C>\005\275d\276\223&\030\276\3143\260=\300\227\323=\266j\226\275f\265m\276\r_w\274d(\";`\275\207=\307\371s\275\0174@\275o\320\230\274\304\210\270=\034\235\241=r\0139\276\314b >\216B\366\274\252\347C\276\364\320\303\275\004\256\245=\014\221\026\275\204\215p>;\346n\275A\315<=\224\3453\276o\232\273\273\274\364&\275\350h\336=;I\252<\215\3579\276\010\'\343\275\360\356}\2750h\211>8\340\322=\336Y&>`\236r>\005S>\276\224f4\276\032\3028=\350*\310=\254\274\325\274\234yx>\306\227;>>\2574<\320\363\002=\007r9\274\210p<>\252X/>\310\204\370\275\020\312[>\354WT\276l\255\366\274\263-K\276ugP\276\202\013L\276\210\344b>\204\010A>\314CB>\340\257Y>\2205&\275\312_\202\276\230\237\245=\226R\026>\362\334\344\2752o\204>\026\232\206>\177>_\276L\301\177>\235\031\313\274\026T\207\275:\342\225\2747W5\275\202/\\<m\337\211\276\032\303k\276B3\202>hc$=bZ7>\340\030F>A\263\312\275\030\352\223\275u`\000\275@\354\326\275\000\216y\276 \241\306\273>\023\033\276\266[#\275\317\0323>\022\342\\>\377\260=>A\t\230=Y\237\333=9\014\201>\311\205\234=\367T\220=\254\277H\276\314\033\013\276\3356\231\274Y\t\226>\337\332\231>\213\306\t\275\222wY\276\343Q\"\276\347\354\244;\221k\350=\370\315\"\276\271\026R>\234\007\212\276\254$\253>\035\325\333\275\217\366v>\006\025c\274F\031p\275\025\353\211>\367\270\026=a$\251=\311C\014\276\211\031~=X\356\021>\211G\204\276\361\253%\276+\r\326=p+\202>\002x)\276\346s*>i\320\003\276\336\354\200\275\230\031\210\275\n\017\316=\254\\K>\000\000\000\000\255\201\206\276\344\375f>L\361w>nz\363\275\262j\206\276\200\3728>\000\000\000\00069\201>:\317\303\275\224\227a>\214\020\365=\000\000\000\000(\327\277<\361\261%\276\036Y\245\275\000\000\000\000,\307\274\275%X\014\276p\322\027=\366\245\361\275\324\214R>\244\322\332=\000\000\000\000\317h\213\276<C\204>\272\302V\276\315s/\276 2;>0#n\276\326\260\251\275\270\027\004\275h\200q\276\240\312i>\335\177z=\214b\326=L\312{>\n\302\211\276[A\303<?\227\005\276T\010\343=\211\265E\275\226\376\026\276X$\341=\364\027\210=6\342\202>\317P=<\232f\277\275\216\334o\276H\333\023>\230\014\255\275\236\273c=\263\014\275=\000\000\000\000\322\247\335=\2437x\275&\017n=\310\2349\274@\304\371\275E0\017>\335\321y\276|W\220\276VJh\275\034\202\002>%n\035>y]g=\371\216\235\275\254\270\004\275\363\304\327\275\3458\215;\341\371\205\276\240\370M\276\275\021l\276\226\344\264<y\274r;\230\217\201\276\251\256+\276\262y\r>\375j\231\276\"s^\276c\206\220\275\213\252\312;\247w5\276\320\264\201\276|\301a\276CNP:\316\030i\275\262%\n>\256\023\021>AJ\332\275n\251\203\275\344>\353\275|\334!>\364-a>\325\212\206\276\004rX\276\211\301h\274\3533\207\276X?\302<\240\013b=`\315W>\326\026\325<\241\301\213\274f\256H\276\026\224\304<\204\014\204\276\204\216[\276\3260\204\2753\374e\275Ax\365\274\276\330\200>H\360E\276l\177$\275\262~2\276\236\247\177\276d\3073>\036\022N\276(\324#\275\340-)\275\003\\\215\273\030&p\276\036\205v=\312}\374\275\356p\352\275\360\000A>\363\325\202\276\000\000\000\000&\"\016>\324#\214>(O\302=\000\000\000\000\302B\205\275\335\0003\275\004\312G>\260+\276=\334+Z\2768\234\227\275\264\232\037\276\204\303\317=\000\000\000\000\000\000\000\000\204\010\237\275\036\\9=\010\251\371=VA\230\27550K\276o\213\036\276\311\342x\275\204~C>\344\334%\276x\033j>c\310\233\274\332HD=\000\000\000\000Q \234\273\000\000\000\000\240~H>0\355\016=\3140\027>f\003>\275\304h\352<qW\021\276.%\327<\260n\313=\210M\250=\340,u\276\320\223\341=F\236\302\275e\261\243<Tso>:@\200>\203e\r\276+\231\371\273\310\235\200\275\036\235E\276\200+V>\222z\301<$\234>\276d+Z>F^\352\272\240M\014>$Dr>\200h8>\357Y\205\276E\224C\275\260\237\307=\000\000\000\000\304Uz=\370\223r=gmY\274t\266\254=\214\337{>\\9-\276\314\337?\275\0167\204\274\310kQ\275\354\222\255\272\000\203\006\276\000\000\000\000\233\312n>0\327{>\340VV>\214\313\t\275\237!\211\276\376Q\275=\376\320\033\276M\264\217=\3510\222>/:\005>\351\306.\274\372\301+>\227\344\r\275o{\320>\303\371\013>C\305\027>\000\000\000\000@\372O>XOO\275\254\257\332\275*\325\225\275\334\307[\275`\357(>\255I\301>\202\347\r=\177\231\002>\010\234\036\276k\331\377=Do\200>\'8\235\275\323\212i\276\205\242\037>\241*\336\275\242L\305>X\321.>\321\016\321>|Q\177>\237m>\276\372\3477>\242.\350\275wj\376\274i\354Z\276\226gs>3\376\224>P\371\217=\216\006\001>=%0\276\346\026\206\2768\343!>\244\004\313\275p\347a>\334\302\217=\251R\201\276\266{<\275\210\325\372=\000\000\000\000\334\032\322=Z\335\347;\324\004\216\275\n[G=xH\355=L\0139>\312\362c\276\234_D\276f\022\342\275X\336\353\275\225\263\247\274\010\334\377= U\320:\000\000\000\000\000{$>\250d\363=\202\372\211>l\223I>\312q\021>\000\000\000\000\220G\310=|\225\000>\374\320x\276\232i@\276$\025\303\275\240\314\373=\313\254Z\275\300\374\210\275\024\347h>\021\r4\276B5\314\275\352\0266>\006j\331\275\030\246D>\030\220P>Rp\360\275\206M\344\275\220\022I>\224\342c>\000\000\000\000\324\022\026>A\306:\275\247\220W=\000\000\000\000\242\315k\276\030\372\242<\'\333\223>\354D\247>\276\000Q\276\370eS\275\315\230`=ClW>\263\222\222>?\024x>\232\345\262>\203[\271=e/\225=\276\305\210>\007\204\213\276\237\354\217\274\300\232\265<\344\024\327=k\227*\276\233\234\027\274\371\227\006>\305\"\253\273=N\023\276L^\240>\207\035\327=\364\270\234>lm\341\275\326\346\006\276\003\346o=kG{\275\235\237\032\276\036\362\357=\356\302\006>\370vo>\323\330V>[\336\034\276\346\241d=1\010\273=\000\201d\276$8\265\275u\367O\275%\334F\276(\013\272\275\006_M>8\366@\276\177\367\357<\234\322\375=\316SV\276\276\240=\276\216\032\203>\000\000\000\000\035r\272\274*S\016=\\X\014?\020\234D\276\247.(>>5\033>\035\352q>*?\020?k\265k>\333\213\300=\037[\334<UT\262>\001\324\317>\206\215\237\272\320\rE\276\266\275\033\276\215Ed>\031)2\274k\303G>\276\361l>u\325I=\214\377\311=Gp\000?uR\355>\345\312\006>!\225X\276\320\017\332>x\277\016=\314_\t?\213\213@>W+w=\360\322\n?\234\371I=6\364\242=Z\301\013?\267\234\313\273\026H/\276\000\000\000\000,NJ\276\016\032\272\275\230e\010\276C-\201\276m\317\017?`\277t\276\253\346}>\316X\206>T\337\205\276h\254;=;\220\337="
      }
    }
  }
}
node {
  name: "dnn/hiddenlayer_1/kernel/part_0/read"
  op: "Identity"
  input: "dnn/hiddenlayer_1/kernel/part_0"
  attr {
    key: "T"
    value {
      type: DT_FLOAT
    }
  }
  attr {
    key: "_class"
    value {
      list {
        s: "loc:@dnn/hiddenlayer_1/kernel/part_0"
      }
    }
  }
}
node {
  name: "dnn/hiddenlayer_1/kernel"
  op: "Identity"
  input: "dnn/hiddenlayer_1/kernel/part_0/read"
  attr {
    key: "T"
    value {
      type: DT_FLOAT
    }
  }
}
node {
  name: "dnn/hiddenlayer_0/bias/part_0"
  op: "Const"
  attr {
    key: "dtype"
    value {
      type: DT_FLOAT
    }
  }
  attr {
    key: "value"
    value {
      tensor {
        dtype: DT_FLOAT
        tensor_shape {
          dim {
            size: 20
          }
        }
        tensor_content: "\037Y\220>\205\252\206>\306P\215>u9\203=\225+v>\274\361\355=].y>\305|\024>\2459\202>\000\000\000\000\000\000\000\000\203k\203>\000\000\000\000:\330h\276\000\000\000\000\000\000\000\000a\375\207>\000\000\000\000f\317p>\301\232\230>"
      }
    }
  }
}
node {
  name: "dnn/hiddenlayer_0/bias/part_0/read"
  op: "Identity"
  input: "dnn/hiddenlayer_0/bias/part_0"
  attr {
    key: "T"
    value {
      type: DT_FLOAT
    }
  }
  attr {
    key: "_class"
    value {
      list {
        s: "loc:@dnn/hiddenlayer_0/bias/part_0"
      }
    }
  }
}
node {
  name: "dnn/hiddenlayer_0/bias"
  op: "Identity"
  input: "dnn/hiddenlayer_0/bias/part_0/read"
  attr {
    key: "T"
    value {
      type: DT_FLOAT
    }
  }
}
node {
  name: "dnn/hiddenlayer_0/kernel/part_0"
  op: "Const"
  attr {
    key: "dtype"
    value {
      type: DT_FLOAT
    }
  }
  attr {
    key: "value"
    value {
      tensor {
        dtype: DT_FLOAT
        tensor_shape {
          dim {
            size: 24
          }
          dim {
            size: 20
          }
        }
        tensor_content: "\027}\026>\275\2415\276\274`\236>j\006I>B\2569>\2329.>!\316)>\376\344\315\272\222\207\265>\244o\234\276[<\n\276m\027\263=A-\235\276\332\326\200=\351a\000\276\215=\255\276z\200F\276@\t\177\275\010k\307>\2074\204\276!3B<\324\217\306>\201\321\353=\272\206z>\314\207s\276\262\276\001=\030s\313>\0239\330>\333\003\000\2761\261\226>2\'\014>\037\206\366=\207\"\223>|}\263=p|\212\276\216\001\035>;\202\313>X\344\033\276\366\361G=\212\233\350>C\272\267=\222\243\231\276\241=\004\276\177\227\363=\303e~>\241v\006;\216\256B>\222\376i>Fs\276>\272:\273\274\270?E\276Z/\224\276\250\027u\276;\250\206\276\224*\232\275>\230\253\276\014\253\227><\177z\276\310\266G>\232\234\026>8T\206\275\243\314\372\274\\Z\274=\361\204[>\"\253\330\275\216\262\027\276\0250\330>\304\337\251\276\320W\003?\202\342r>\017x@\276\020\002\334\275\317\304\230\276\304\027M;\311=\245>0\002\223\275\2636\024\276\002~\301\274\315$\336\275z\017{=1\353\200\276\320y\362>\327{\313=\034Mm\276<\177\337\275\036\350\275>\326\333C=:\300\313=1\300\014>>\345\037\276g\016\016\276\234\206\273>\000\000\000\0001\372q>\003\330\257>E;r=\236\323\000>J\326\n>\315\215\210>V\177\027>rx\261><(\225>h\367\330=\0209\205>\033\360\211\276\037\246B\275\264A&>s\200\353\274i\014\271>\271\274:\276\223:\377\274\215\311\373=Q\251\014\274\307B\277\275$\306j\2768\356\272=\325\340\223>\000\000\000\000$@\221\276j1\302>a\nf>\n\215\214>3\263\332>\227hY\276\354C\027>T\317\257=\215\327\371:\216\323k\2760b\010=ht\312\275E\006\213>M#\263\275/\347\222>\233\227\371\276\231;\236>\334\002\260\276\255M}>\203\311\245>mT\361=v\301l<\315\347\243=\335\315\033>u\262\000>Mb\036>\270\325\330>F\333\263\276\375p\340=\261\314\177\276R\350a\275\000\000\000\000\204\224\221\275\206\\\253> \232\225\276\326!\352\275\270\205F\276N\346\177\276\227\365\032\276\021\270a\276%\217\335\275\301\215\275>C\020\204>MD\231=`Y\035>\267,\333=v\201,\276Q\276H\276&?\217>\356\330\'>\204\3511\275\036\227E>N\317W>cs\232>8\337u\276\254?~\276|h\237\276j\213H>\343|\374>O\345}=s$\034\276\252~\253>\270\'\256>\263\257\246>c\206\006\276\237j3\276S4\305<,\307\242\276\235\000\002>>aH\275%1\262>\317\207\261\276\272\024\000>\212\252\237>\350\246\007\275\267\370A><\214\247=xO\002\275\226\323\202>\221I\252\276\302C\304>*h\262>\002G\270=(\215\232>\001\356\252>\013-\003:Wo\034\275\246\252\236\276\203\234\245>\275.\216\276T\344\350=\204b\252=\304\314f\276\230\013f>\202#\372\275\021\315T>\025)\260\274\352\370o>t\337\204>\337\256@\275X\333j=\227\301\222>}\020K>E\243W>\323\271\374>\214}\230>\247\317]>\317\203\246>\305\252\355>!\246\251\276<C\376=JX#>\375BX\276\315\211\353>I\207\262>\243*\262\276\302\022s>\022x%>\201\341e<Gk\210>\025d<\276b\367%\274\270\212\233=\336\367X>\317\223\205>|0\237\275FQX\276\222[#\276=\036\006\276C\330d\276R\3274>\217\315\244>\325\036\256>\000\000\000\000n\255d>\001 \031\276\330\340\241\276\340c\000=\265\237\206>\370\303\227\275\232\353\202\276\324\302\246\276\376EQ>\236\324[\276\256$g\274\350\3362\276\337\272\201\276\274\272\361\275r\251P=x\320\250\275\266H\373\275\356\206\006>\000\000\000\000\204\364\355=T\363\222\275JH\327\273\256\373I\275f\242\221\2761\270\227>\367\3129\276\306|\241\276\030\257\033\275\234\007\270=\350\230\004\276\360\215/\275\371Fe=\030\265#=\350\321C\276\241\360\305\274\210\360\267\275\231\262\226\276+\240\227>\327f\230\276\344I\303=\200o\023\275\017\224t\275\020\347\320\275LD\210\276>\273\353\275\351\377\212>\332\224\254\276?\253\204>\232Q\037\276\000\000\000\000\311O@\2764x\242\275\000\314\204\275x\204\020=\027+\253>^\030\026\276fO\000>\303L\251\276EAe\273s\301\221>\316U\026\276I\2719\275\346\303\221\276,\344\244=\365\322\257\276x\344\326=\327#\021\276 \226\244\275\223\243\237;\223\010\221\276\304\220\377\275\311\361\236>I\367\252>\264y\360=\000\000\000\0007\214\233>A6\206\276X\333\007\275\274}\267\275\216>S>8@\027\275\361\212\207>p\204\246\275H>\244\276\tK\230>\004\177a\275\251\205\233\276\273s\257\276v\325E>\221G\200\276\244\035\262=\234\222\360<5\335\242>H\027\223\275\217\325\212>9\n\212>\276\376D\274)\366\201>\325\332\213>\030\036p\276\232\267\243\276\034`\232\275\214\300\207\275\300\214\253\2768\017\035==L\253>\366\371\263\274\350t\332=\272-\326\275\331\r\215>n\367\372\275.U\367\275vX\302;\000\000\000\000@\315\321=\376\257n\274\310/\031=\204K\253=\256\230\223\2760\240\000;n\261}>~M}\276f\000#>\234I\221\276\245\r\363\273\341N\212>6f\373\275\200\210/=\350\367\337=\344\262\350=\021\361\251>`\307$\275\\\370\375=\211\213\225>\226\225P>\227Q\211>\304q\320;\267\206\007\272\010\275>\275L\346\230\275\200V\005\275\n\020\254\276<N\026\276\'\371\224>\364\330\254==\225\210>\230\355\376\275\010\330\246=\346R\034>\327uH\276\272\2257>|\302\232=\320%\033\2758@\024\275\371+\203>\353\342=\276BW\017>\016\354\021>\206\n?\276\220\331\240\276\277\327\211;\000\000\000\000\002d\203\276mq\222>\210\305>=a\257\261>&\370\005>.\204Y>\270\363^\275\2515\243>\275,\007;\276\364\004\276\227\277\232>5(\237\276\314\236\255\2768@(\275\306\270A>\232d`<\346~2>@\177L\274\000\000\000\000c\343\234\276\254\272e\276YQJ\275\264\021\347\275,`@\276r\017\000>M$\252>\252\312.>\\\226\205\275\225+\206>\220\244h\276.\272\004>\245b\244>\210\340\221\276\234_\350\274\352V\007>\332\344U\275\004\330\326=\276\331c\275\000\000\000\000\326\2458>3gW\276*\217\007>\314U\342=\032\002F>\226\257\232\276P\014\340=\266\262B\275\276n\003>U\352\237\276\035L\236>\013\335\252\276\000\000\000\000\214o\352=\004\036\223=l_\252\2752UF\275\267\340~=/\216Y=\324\237\374=%\030\242\276mO\263>DuA\276\000\000\000\000\000\000\000\000\341\252\231>\332p\'>"
      }
    }
  }
}
node {
  name: "dnn/hiddenlayer_0/kernel/part_0/read"
  op: "Identity"
  input: "dnn/hiddenlayer_0/kernel/part_0"
  attr {
    key: "T"
    value {
      type: DT_FLOAT
    }
  }
  attr {
    key: "_class"
    value {
      list {
        s: "loc:@dnn/hiddenlayer_0/kernel/part_0"
      }
    }
  }
}
node {
  name: "dnn/hiddenlayer_0/kernel"
  op: "Identity"
  input: "dnn/hiddenlayer_0/kernel/part_0/read"
  attr {
    key: "T"
    value {
      type: DT_FLOAT
    }
  }
}
node {
  name: "dnn/input_from_feature_columns/input_layer/examples.nqueens.Nqueens/Reshape/shape/1"
  op: "Const"
  attr {
    key: "dtype"
    value {
      type: DT_INT32
    }
  }
  attr {
    key: "value"
    value {
      tensor {
        dtype: DT_INT32
        tensor_shape {
        }
        int_val: 24
      }
    }
  }
}
node {
  name: "dnn/input_from_feature_columns/input_layer/examples.nqueens.Nqueens/strided_slice/stack_2"
  op: "Const"
  attr {
    key: "dtype"
    value {
      type: DT_INT32
    }
  }
  attr {
    key: "value"
    value {
      tensor {
        dtype: DT_INT32
        tensor_shape {
          dim {
            size: 1
          }
        }
        int_val: 1
      }
    }
  }
}
node {
  name: "dnn/input_from_feature_columns/input_layer/examples.nqueens.Nqueens/strided_slice/stack_1"
  op: "Const"
  attr {
    key: "dtype"
    value {
      type: DT_INT32
    }
  }
  attr {
    key: "value"
    value {
      tensor {
        dtype: DT_INT32
        tensor_shape {
          dim {
            size: 1
          }
        }
        int_val: 1
      }
    }
  }
}
node {
  name: "dnn/input_from_feature_columns/input_layer/examples.nqueens.Nqueens/strided_slice/stack"
  op: "Const"
  attr {
    key: "dtype"
    value {
      type: DT_INT32
    }
  }
  attr {
    key: "value"
    value {
      tensor {
        dtype: DT_INT32
        tensor_shape {
          dim {
            size: 1
          }
        }
        int_val: 0
      }
    }
  }
}
node {
  name: "dnn/input_from_feature_columns/input_layer/examples.nqueens.Nqueens/ToFloat"
  op: "Cast"
  input: "Placeholder"
  attr {
    key: "DstT"
    value {
      type: DT_FLOAT
    }
  }
  attr {
    key: "SrcT"
    value {
      type: DT_DOUBLE
    }
  }
}
node {
  name: "dnn/input_from_feature_columns/input_layer/examples.nqueens.Nqueens/Shape"
  op: "Shape"
  input: "dnn/input_from_feature_columns/input_layer/examples.nqueens.Nqueens/ToFloat"
  attr {
    key: "T"
    value {
      type: DT_FLOAT
    }
  }
  attr {
    key: "out_type"
    value {
      type: DT_INT32
    }
  }
}
node {
  name: "dnn/input_from_feature_columns/input_layer/examples.nqueens.Nqueens/strided_slice"
  op: "StridedSlice"
  input: "dnn/input_from_feature_columns/input_layer/examples.nqueens.Nqueens/Shape"
  input: "dnn/input_from_feature_columns/input_layer/examples.nqueens.Nqueens/strided_slice/stack"
  input: "dnn/input_from_feature_columns/input_layer/examples.nqueens.Nqueens/strided_slice/stack_1"
  input: "dnn/input_from_feature_columns/input_layer/examples.nqueens.Nqueens/strided_slice/stack_2"
  attr {
    key: "Index"
    value {
      type: DT_INT32
    }
  }
  attr {
    key: "T"
    value {
      type: DT_INT32
    }
  }
  attr {
    key: "begin_mask"
    value {
      i: 0
    }
  }
  attr {
    key: "ellipsis_mask"
    value {
      i: 0
    }
  }
  attr {
    key: "end_mask"
    value {
      i: 0
    }
  }
  attr {
    key: "new_axis_mask"
    value {
      i: 0
    }
  }
  attr {
    key: "shrink_axis_mask"
    value {
      i: 1
    }
  }
}
node {
  name: "dnn/input_from_feature_columns/input_layer/examples.nqueens.Nqueens/Reshape/shape"
  op: "Pack"
  input: "dnn/input_from_feature_columns/input_layer/examples.nqueens.Nqueens/strided_slice"
  input: "dnn/input_from_feature_columns/input_layer/examples.nqueens.Nqueens/Reshape/shape/1"
  attr {
    key: "N"
    value {
      i: 2
    }
  }
  attr {
    key: "T"
    value {
      type: DT_INT32
    }
  }
  attr {
    key: "axis"
    value {
      i: 0
    }
  }
}
node {
  name: "dnn/input_from_feature_columns/input_layer/examples.nqueens.Nqueens/Reshape"
  op: "Reshape"
  input: "dnn/input_from_feature_columns/input_layer/examples.nqueens.Nqueens/ToFloat"
  input: "dnn/input_from_feature_columns/input_layer/examples.nqueens.Nqueens/Reshape/shape"
  attr {
    key: "T"
    value {
      type: DT_FLOAT
    }
  }
  attr {
    key: "Tshape"
    value {
      type: DT_INT32
    }
  }
}
node {
  name: "dnn/input_from_feature_columns/input_layer/concat"
  op: "Identity"
  input: "dnn/input_from_feature_columns/input_layer/examples.nqueens.Nqueens/Reshape"
  attr {
    key: "T"
    value {
      type: DT_FLOAT
    }
  }
}
node {
  name: "dnn/hiddenlayer_0/MatMul"
  op: "MatMul"
  input: "dnn/input_from_feature_columns/input_layer/concat"
  input: "dnn/hiddenlayer_0/kernel"
  attr {
    key: "T"
    value {
      type: DT_FLOAT
    }
  }
  attr {
    key: "transpose_a"
    value {
      b: false
    }
  }
  attr {
    key: "transpose_b"
    value {
      b: false
    }
  }
}
node {
  name: "dnn/hiddenlayer_0/BiasAdd"
  op: "BiasAdd"
  input: "dnn/hiddenlayer_0/MatMul"
  input: "dnn/hiddenlayer_0/bias"
  attr {
    key: "T"
    value {
      type: DT_FLOAT
    }
  }
  attr {
    key: "data_format"
    value {
      s: "NHWC"
    }
  }
}
node {
  name: "dnn/hiddenlayer_0/Relu"
  op: "Relu"
  input: "dnn/hiddenlayer_0/BiasAdd"
  attr {
    key: "T"
    value {
      type: DT_FLOAT
    }
  }
}
node {
  name: "dnn/hiddenlayer_1/MatMul"
  op: "MatMul"
  input: "dnn/hiddenlayer_0/Relu"
  input: "dnn/hiddenlayer_1/kernel"
  attr {
    key: "T"
    value {
      type: DT_FLOAT
    }
  }
  attr {
    key: "transpose_a"
    value {
      b: false
    }
  }
  attr {
    key: "transpose_b"
    value {
      b: false
    }
  }
}
node {
  name: "dnn/hiddenlayer_1/BiasAdd"
  op: "BiasAdd"
  input: "dnn/hiddenlayer_1/MatMul"
  input: "dnn/hiddenlayer_1/bias"
  attr {
    key: "T"
    value {
      type: DT_FLOAT
    }
  }
  attr {
    key: "data_format"
    value {
      s: "NHWC"
    }
  }
}
node {
  name: "dnn/hiddenlayer_1/Relu"
  op: "Relu"
  input: "dnn/hiddenlayer_1/BiasAdd"
  attr {
    key: "T"
    value {
      type: DT_FLOAT
    }
  }
}
node {
  name: "dnn/hiddenlayer_2/MatMul"
  op: "MatMul"
  input: "dnn/hiddenlayer_1/Relu"
  input: "dnn/hiddenlayer_2/kernel"
  attr {
    key: "T"
    value {
      type: DT_FLOAT
    }
  }
  attr {
    key: "transpose_a"
    value {
      b: false
    }
  }
  attr {
    key: "transpose_b"
    value {
      b: false
    }
  }
}
node {
  name: "dnn/hiddenlayer_2/BiasAdd"
  op: "BiasAdd"
  input: "dnn/hiddenlayer_2/MatMul"
  input: "dnn/hiddenlayer_2/bias"
  attr {
    key: "T"
    value {
      type: DT_FLOAT
    }
  }
  attr {
    key: "data_format"
    value {
      s: "NHWC"
    }
  }
}
node {
  name: "dnn/hiddenlayer_2/Relu"
  op: "Relu"
  input: "dnn/hiddenlayer_2/BiasAdd"
  attr {
    key: "T"
    value {
      type: DT_FLOAT
    }
  }
}
node {
  name: "dnn/logits/MatMul"
  op: "MatMul"
  input: "dnn/hiddenlayer_2/Relu"
  input: "dnn/logits/kernel"
  attr {
    key: "T"
    value {
      type: DT_FLOAT
    }
  }
  attr {
    key: "transpose_a"
    value {
      b: false
    }
  }
  attr {
    key: "transpose_b"
    value {
      b: false
    }
  }
}
node {
  name: "dnn/logits/BiasAdd"
  op: "BiasAdd"
  input: "dnn/logits/MatMul"
  input: "dnn/logits/bias"
  attr {
    key: "T"
    value {
      type: DT_FLOAT
    }
  }
  attr {
    key: "data_format"
    value {
      s: "NHWC"
    }
  }
}
library {
  function {
    signature {
      name: "_make_dataset_18ad4f76"
      output_arg {
        name: "RepeatDataset"
        type: DT_VARIANT
      }
      is_stateful: true
    }
    node_def {
      name: "TensorSliceDataset/tensors/component_0"
      op: "Const"
      attr {
        key: "dtype"
        value {
          type: DT_DOUBLE
        }
      }
      attr {
        key: "value"
        value {
          tensor {
            dtype: DT_DOUBLE
            tensor_shape {
              dim {
                size: 70
              }
              dim {
                size: 24
              }
            }
            tensor_content: "\000\000\000\000\000\200I@\000\000\000\000\000\000\020@\000\000\000\000\000\000\000@\000\000\000\000\000\000\000@\000\000\000\000\000\000\000@\000\000\000\000\000\000\000\000\000\000\000\000\000\000\010@\000\000\000\000\000\000\360?\000\000\000\000\000\000\030@\000\000\000\000\000\0006@\000\000\000\000\000\000\010@\000\000\000\000\000\000\000\000\000\000\000\000\000\000\000\000\000\000\000\000\000\000\000\000\000\000\000\000\000\000\000\000\000\000\000\000\000\000\000\000\000\000\000\000\000\000\000\000\000\000\000\000\000\000\000\000\000\000\000\000\000\000\000\000\000\000\000\000\000\000\000\000\000\000\000\000\000\000\000\000\000\000\000\000\000\000\000\000\000\000\000\000\000\000\000\000\000\000\000\000\000\000\000\000\000\000\000\000\000\000J@\000\000\000\000\000\000\020@\000\000\000\000\000\000\000@\000\000\000\000\000\000\030@\000\000\000\000\000\000\360?\000\000\000\000\000\000\000\000\000\000\000\000\000\000\000\000\000\000\000\000\000\000\010@\000\000\000\000\000\000\030@\000\000\000\000\000\000*@\000\000\000\000\000\000\020@\000\000\000\000\000\000\360?\000\000\000\000\000\000\000\000\000\000\000\000\000\000\000\000\000\000\000\000\000\000\000\000\000\000\000\000\000\000\000\000\000\000\000\000\000\000\000\000\000\000\000\000\000\000\000\000\000\000\000\000\000\000\000\000\000\000\000\000\000\000\000\000\000\000\000\000\000\000\000\000\000\000\000\000\000\000\000\000\000\000\000\000\000\000\000\000\000\000\000\000\000\000\000\000\000\000\000\000\000\000R@\000\000\000\000\000\000\024@\000\000\000\000\000\000\020@\000\000\000\000\000\000\000@\000\000\000\000\000\000\000@\000\000\000\000\000\000\000@\000\000\000\000\000\000\000\000\000\000\000\000\000\000\010@\000\000\000\000\000\000\020@\000\000\000\000\000\0009@\000\000\000\000\000\000\"@\000\000\000\000\000\000\000\000\000\000\000\000\000\000\000\000\000\000\000\000\000\000\000\000\000\000\000\000\000\000\000\000\000\000\000\000\000\000\000\000\000\000\000\000\000\000\000\000\000\000\000\000\000\000\000\000\000\000\000\000\000\000\000\000\000\000\000\000\000\000\000\000\000\000\000\000\000\000\000\000\000\000\000\000\000\000\000\000\000\000\000\000\000\000\000\000\000\000\000\000\000\000\000\000\000\000\000\000\000\300Q@\000\000\000\000\000\000\010@\000\000\000\000\000\000\010@\000\000\000\000\000\000\000\000\000\000\000\000\000\000\360?\000\000\000\000\000\000\030@\000\000\000\000\000\000\000@\000\000\000\000\000\000\034@\000\000\000\000\000\000\030@\000\000\000\000\000\0006@\000\000\000\000\000\000\030@\000\000\000\000\000\000\000\000\000\000\000\000\000\000\000\000\000\000\000\000\000\000\000\000\000\000\000\000\000\000\000\000\000\000\000\000\000\000\000\000\000\000\000\000\000\000\000\000\000\000\000\000\000\000\000\000\000\000\000\000\000\000\000\000\000\000\000\000\000\000\000\000\000\000\000\000\000\000\000\000\000\000\000\000\000\000\000\000\000\000\000\000\000\000\000\000\000\000\000\000\000\000\000\000\000\000\000\000\000@P@\000\000\000\000\000\000\000@\000\000\000\000\000\000\034@\000\000\000\000\000\000\010@\000\000\000\000\000\000\360?\000\000\000\000\000\000\000\000\000\000\000\000\000\000\000\000\000\000\000\000\000\000\000@\000\000\000\000\000\000\024@\000\000\000\000\000\000$@\000\000\000\000\000\000\020@\000\000\000\000\000\000\000\000\000\000\000\000\000\000\000\000\000\000\000\000\000\000\000\000\000\000\000\000\000\000\000\000\000\000\000\000\000\000\000\000\000\000\000\000\000\000\000\000\000\000\000\000\000\000\000\000\000\000\000\000\000\000\000\000\000\000\000\000\000\000\000\000\000\000\000\000\000\000\000\000\000\000\000\000\000\000\000\000\000\000\000\000\000\000\000\000\000\000\000\000\000\000\000\000\000\000\000\000\000\200I@\000\000\000\000\000\000\020@\000\000\000\000\000\000\000\000\000\000\000\000\000\000\020@\000\000\000\000\000\000\000@\000\000\000\000\000\000\000\000\000\000\000\000\000\000\000@\000\000\000\000\000\000\000@\000\000\000\000\000\000\010@\000\000\000\000\000\0005@\000\000\000\000\000\000\024@\000\000\000\000\000\000\000\000\000\000\000\000\000\000\000\000\000\000\000\000\000\000\000\000\000\000\000\000\000\000\000\000\000\000\000\000\000\000\000\000\000\000\000\000\000\000\000\000\000\000\000\000\000\000\000\000\000\000\000\000\000\000\000\000\000\000\000\000\000\000\000\000\000\000\000\000\000\000\000\000\000\000\000\000\000\000\000\000\000\000\000\000\000\000\000\000\000\000\000\000\000\000\000\000\000\000\000\000\000\000M@\000\000\000\000\000\000\000@\000\000\000\000\000\000\000\000\000\000\000\000\000\000\000@\000\000\000\000\000\000\360?\000\000\000\000\000\000\360?\000\000\000\000\000\000\024@\000\000\000\000\000\000\030@\000\000\000\000\000\000\360?\000\000\000\000\000\000(@\000\000\000\000\000\000\024@\000\000\000\000\000\000\000@\000\000\000\000\000\000\000\000\000\000\000\000\000\000\000\000\000\000\000\000\000\000\000\000\000\000\000\000\000\000\000\000\000\000\000\000\000\000\000\000\000\000\000\000\000\000\000\000\000\000\000\000\000\000\000\000\000\000\000\000\000\000\000\000\000\000\000\000\000\000\000\000\000\000\000\000\000\000\000\000\000\000\000\000\000\000\000\000\000\000\000\000\000\000\000\000\000\000\000\000\000\000J@\000\000\000\000\000\000\024@\000\000\000\000\000\000\000@\000\000\000\000\000\000\360?\000\000\000\000\000\000\000@\000\000\000\000\000\000\000\000\000\000\000\000\000\000\030@\000\000\000\000\000\000\360?\000\000\000\000\000\000\034@\000\000\000\000\000\000,@\000\000\000\000\000\000\000@\000\000\000\000\000\000\000\000\000\000\000\000\000\000\000\000\000\000\000\000\000\000\000\000\000\000\000\000\000\000\000\000\000\000\000\000\000\000\000\000\000\000\000\000\000\000\000\000\000\000\000\000\000\000\000\000\000\000\000\000\000\000\000\000\000\000\000\000\000\000\000\000\000\000\000\000\000\000\000\000\000\000\000\000\000\000\000\000\000\000\000\000\000\000\000\000\000\000\000\000\000\000\000\000\000\000\000\000\000\000A@\000\000\000\000\000\000\020@\000\000\000\000\000\000\000@\000\000\000\000\000\000\000\000\000\000\000\000\000\000\000@\000\000\000\000\000\000\000\000\000\000\000\000\000\000\000@\000\000\000\000\000\000\360?\000\000\000\000\000\000\010@\000\000\000\000\000\000(@\000\000\000\000\000\000\010@\000\000\000\000\000\000\000\000\000\000\000\000\000\000\000\000\000\000\000\000\000\000\000\000\000\000\000\000\000\000\000\000\000\000\000\000\000\000\000\000\000\000\000\000\000\000\000\000\000\000\000\000\000\000\000\000\000\000\000\000\000\000\000\000\000\000\000\000\000\000\000\000\000\000\000\000\000\000\000\000\000\000\000\000\000\000\000\000\000\000\000\000\000\000\000\000\000\000\000\000\000\000\000\000\000\000\000\000\000\000\"@\000\000\000\000\000\000\360?\000\000\000\000\000\000\360?\000\000\000\000\000\000\000\000\000\000\000\000\000\000\000\000\000\000\000\000\000\000\360?\000\000\000\000\000\000\360?\000\000\000\000\000\000\360?\000\000\000\000\000\000\360?\000\000\000\000\000\000\020@\000\000\000\000\000\000\360?\000\000\000\000\000\000\000\000\000\000\000\000\000\000\000\000\000\000\000\000\000\000\000\000\000\000\000\000\000\000\000\000\000\000\000\000\000\000\000\000\000\000\000\000\000\000\000\000\000\000\000\000\000\000\000\000\000\000\000\000\000\000\000\000\000\000\000\000\000\000\000\000\000\000\000\000\000\000\000\000\000\000\000\000\000\000\000\000\000\000\000\000\000\000\000\000\000\000\000\000\000\000\000\000\000\000\000\000\000\200@@\000\000\000\000\000\000\020@\000\000\000\000\000\000\000@\000\000\000\000\000\000\010@\000\000\000\000\000\000\360?\000\000\000\000\000\000\360?\000\000\000\000\000\000\000\000\000\000\000\000\000\000\000\000\000\000\000\000\000\000\000@\000\000\000\000\000\000,@\000\000\000\000\000\000\010@\000\000\000\000\000\000\000\000\000\000\000\000\000\000\000\000\000\000\000\000\000\000\000\000\000\000\000\000\000\000\000\000\000\000\000\000\000\000\000\000\000\000\000\000\000\000\000\000\000\000\000\000\000\000\000\000\000\000\000\000\000\000\000\000\000\000\000\000\000\000\000\000\000\000\000\000\000\000\000\000\000\000\000\000\000\000\000\000\000\000\000\000\000\000\000\000\000\000\000\000\000\000\000\000\000\000\000\000\000\200O@\000\000\000\000\000\000 @\000\000\000\000\000\000\020@\000\000\000\000\000\000\024@\000\000\000\000\000\000\000@\000\000\000\000\000\000\010@\000\000\000\000\000\000\020@\000\000\000\000\000\000\024@\000\000\000\000\000\000\024@\000\000\000\000\000\000,@\000\000\000\000\000\000\030@\000\000\000\000\000\000\000\000\000\000\000\000\000\000\000\000\000\000\000\000\000\000\000\000\000\000\000\000\000\000\000\000\000\000\000\000\000\000\000\000\000\000\000\000\000\000\000\000\000\000\000\000\000\000\000\000\000\000\000\000\000\000\000\000\000\000\000\000\000\000\000\000\000\000\000\000\000\000\000\000\000\000\000\000\000\000\000\000\000\000\000\000\000\000\000\000\000\000\000\000\000\000\000\000\000\000\000\000\000\200P@\000\000\000\000\000\000\024@\000\000\000\000\000\000\020@\000\000\000\000\000\000\010@\000\000\000\000\000\000\360?\000\000\000\000\000\000\000@\000\000\000\000\000\000\360?\000\000\000\000\000\000\360?\000\000\000\000\000\000 @\000\000\000\000\000\0007@\000\000\000\000\000\000\030@\000\000\000\000\000\000\000\000\000\000\000\000\000\000\000\000\000\000\000\000\000\000\000\000\000\000\000\000\000\000\000\000\000\000\000\000\000\000\000\000\000\000\000\000\000\000\000\000\000\000\000\000\000\000\000\000\000\000\000\000\000\000\000\000\000\000\000\000\000\000\000\000\000\000\000\000\000\000\000\000\000\000\000\000\000\000\000\000\000\000\000\000\000\000\000\000\000\000\000\000\000\000\000\000\000\000\000\000\000\000L@\000\000\000\000\000\000\010@\000\000\000\000\000\000\010@\000\000\000\000\000\000\010@\000\000\000\000\000\000\360?\000\000\000\000\000\000\000@\000\000\000\000\000\000\360?\000\000\000\000\000\000\000@\000\000\000\000\000\000\020@\000\000\000\000\000\0005@\000\000\000\000\000\000\020@\000\000\000\000\000\000\000\000\000\000\000\000\000\000\000\000\000\000\000\000\000\000\000\000\000\000\000\000\000\000\000\000\000\000\000\000\000\000\000\000\000\000\000\000\000\000\000\000\000\000\000\000\000\000\000\000\000\000\000\000\000\000\000\000\000\000\000\000\000\000\000\000\000\000\000\000\000\000\000\000\000\000\000\000\000\000\000\000\000\000\000\000\000\000\000\000\000\000\000\000\000\000\000\000\000\000\000\000\000@P@\000\000\000\000\000\000\034@\000\000\000\000\000\000\030@\000\000\000\000\000\000\010@\000\000\000\000\000\000\000@\000\000\000\000\000\000\010@\000\000\000\000\000\000\000\000\000\000\000\000\000\000\000@\000\000\000\000\000\000\020@\000\000\000\000\000\0006@\000\000\000\000\000\000\034@\000\000\000\000\000\000\000\000\000\000\000\000\000\000\000\000\000\000\000\000\000\000\000\000\000\000\000\000\000\000\000\000\000\000\000\000\000\000\000\000\000\000\000\000\000\000\000\000\000\000\000\000\000\000\000\000\000\000\000\000\000\000\000\000\000\000\000\000\000\000\000\000\000\000\000\000\000\000\000\000\000\000\000\000\000\000\000\000\000\000\000\000\000\000\000\000\000\000\000\000\000\000\000\000\000\000\000\000\000\000L@\000\000\000\000\000\000\034@\000\000\000\000\000\000\000@\000\000\000\000\000\000\020@\000\000\000\000\000\000\020@\000\000\000\000\000\000\010@\000\000\000\000\000\000\000@\000\000\000\000\000\000\000\000\000\000\000\000\000\000\360?\000\000\000\000\000\000$@\000\000\000\000\000\000 @\000\000\000\000\000\000\000\000\000\000\000\000\000\000\000\000\000\000\000\000\000\000\000\000\000\000\000\000\000\000\000\000\000\000\000\000\000\000\000\000\000\000\000\000\000\000\000\000\000\000\000\000\000\000\000\000\000\000\000\000\000\000\000\000\000\000\000\000\000\000\000\000\000\000\000\000\000\000\000\000\000\000\000\000\000\000\000\000\000\000\000\000\000\000\000\000\000\000\000\000\000\000\000\000\000\000\000\000\000\200K@\000\000\000\000\000\000\020@\000\000\000\000\000\000\000@\000\000\000\000\000\000\360?\000\000\000\000\000\000\000\000\000\000\000\000\000\000\000@\000\000\000\000\000\000\000@\000\000\000\000\000\000\360?\000\000\000\000\000\000\360?\000\000\000\000\000\0004@\000\000\000\000\000\000\030@\000\000\000\000\000\000\000\000\000\000\000\000\000\000\000\000\000\000\000\000\000\000\000\000\000\000\000\000\000\000\000\000\000\000\000\000\000\000\000\000\000\000\000\000\000\000\000\000\000\000\000\000\000\000\000\000\000\000\000\000\000\000\000\000\000\000\000\000\000\000\000\000\000\000\000\000\000\000\000\000\000\000\000\000\000\000\000\000\000\000\000\000\000\000\000\000\000\000\000\000\000\000\000\000\000\000\000\000\000\200G@\000\000\000\000\000\000\024@\000\000\000\000\000\000\360?\000\000\000\000\000\000\000@\000\000\000\000\000\000\360?\000\000\000\000\000\000\000\000\000\000\000\000\000\000\360?\000\000\000\000\000\000\024@\000\000\000\000\000\000\010@\000\000\000\000\000\000$@\000\000\000\000\000\000\030@\000\000\000\000\000\000\000\000\000\000\000\000\000\000\000\000\000\000\000\000\000\000\000\000\000\000\000\000\000\000\000\000\000\000\000\000\000\000\000\000\000\000\000\000\000\000\000\000\000\000\000\000\000\000\000\000\000\000\000\000\000\000\000\000\000\000\000\000\000\000\000\000\000\000\000\000\000\000\000\000\000\000\000\000\000\000\000\000\000\000\000\000\000\000\000\000\000\000\000\000\000\000\000\000\000\000\000\000\000\000E@\000\000\000\000\000\000\010@\000\000\000\000\000\000\010@\000\000\000\000\000\000\000\000\000\000\000\000\000\000\024@\000\000\000\000\000\000\360?\000\000\000\000\000\000\020@\000\000\000\000\000\000\000@\000\000\000\000\000\000\030@\000\000\000\000\000\0000@\000\000\000\000\000\000\010@\000\000\000\000\000\000\000\000\000\000\000\000\000\000\000\000\000\000\000\000\000\000\000\000\000\000\000\000\000\000\000\000\000\000\000\000\000\000\000\000\000\000\000\000\000\000\000\000\000\000\000\000\000\000\000\000\000\000\000\000\000\000\000\000\000\000\000\000\000\000\000\000\000\000\000\000\000\000\000\000\000\000\000\000\000\000\000\000\000\000\000\000\000\000\000\000\000\000\000\000\000\000\000\000\000\000\000\000\000\200B@\000\000\000\000\000\000\360?\000\000\000\000\000\000\010@\000\000\000\000\000\000\010@\000\000\000\000\000\000\360?\000\000\000\000\000\000\360?\000\000\000\000\000\000\000@\000\000\000\000\000\000\000@\000\000\000\000\000\000\010@\000\000\000\000\000\0001@\000\000\000\000\000\000\000@\000\000\000\000\000\000\000\000\000\000\000\000\000\000\000\000\000\000\000\000\000\000\000\000\000\000\000\000\000\000\000\000\000\000\000\000\000\000\000\000\000\000\000\000\000\000\000\000\000\000\000\000\000\000\000\000\000\000\000\000\000\000\000\000\000\000\000\000\000\000\000\000\000\000\000\000\000\000\000\000\000\000\000\000\000\000\000\000\000\000\000\000\000\000\000\000\000\000\000\000\000\000\000\000\000\000\000\000\000\200A@\000\000\000\000\000\000\000\000\000\000\000\000\000\000\010@\000\000\000\000\000\000\010@\000\000\000\000\000\000\000@\000\000\000\000\000\000\000@\000\000\000\000\000\000\360?\000\000\000\000\000\000\000\000\000\000\000\000\000\000\010@\000\000\000\000\000\000*@\000\000\000\000\000\000\020@\000\000\000\000\000\000\000\000\000\000\000\000\000\000\000\000\000\000\000\000\000\000\000\000\000\000\000\000\000\000\000\000\000\000\000\000\000\000\000\000\000\000\000\000\000\000\000\000\000\000\000\000\000\000\000\000\000\000\000\000\000\000\000\000\000\000\000\000\000\000\000\000\000\000\000\000\000\000\000\000\000\000\000\000\000\000\000\000\000\000\000\000\000\000\000\000\000\000\000\000\000\000\000\000\000\000\000\000\000\200B@\000\000\000\000\000\000\024@\000\000\000\000\000\000\000\000\000\000\000\000\000\000\010@\000\000\000\000\000\000\000@\000\000\000\000\000\000\000@\000\000\000\000\000\000\000@\000\000\000\000\000\000\000@\000\000\000\000\000\000\010@\000\000\000\000\000\000(@\000\000\000\000\000\000\010@\000\000\000\000\000\000\000\000\000\000\000\000\000\000\000\000\000\000\000\000\000\000\000\000\000\000\000\000\000\000\000\000\000\000\000\000\000\000\000\000\000\000\000\000\000\000\000\000\000\000\000\000\000\000\000\000\000\000\000\000\000\000\000\000\000\000\000\000\000\000\000\000\000\000\000\000\000\000\000\000\000\000\000\000\000\000\000\000\000\000\000\000\000\000\000\000\000\000\000\000\000\000\000\000\000\000\000\000\000\000A@\000\000\000\000\000\000\360?\000\000\000\000\000\000\000\000\000\000\000\000\000\000\360?\000\000\000\000\000\000\000\000\000\000\000\000\000\000\010@\000\000\000\000\000\000\000@\000\000\000\000\000\000\000@\000\000\000\000\000\000\024@\000\000\000\000\000\000.@\000\000\000\000\000\000\030@\000\000\000\000\000\000\000\000\000\000\000\000\000\000\000\000\000\000\000\000\000\000\000\000\000\000\000\000\000\000\000\000\000\000\000\000\000\000\000\000\000\000\000\000\000\000\000\000\000\000\000\000\000\000\000\000\000\000\000\000\000\000\000\000\000\000\000\000\000\000\000\000\000\000\000\000\000\000\000\000\000\000\000\000\000\000\000\000\000\000\000\000\000\000\000\000\000\000\000\000\000\000\000\000\000\000\000\000\000\000=@\000\000\000\000\000\000\000@\000\000\000\000\000\000\000@\000\000\000\000\000\000\360?\000\000\000\000\000\000\360?\000\000\000\000\000\000\000@\000\000\000\000\000\000\000@\000\000\000\000\000\000\000\000\000\000\000\000\000\000\010@\000\000\000\000\000\000\034@\000\000\000\000\000\000\020@\000\000\000\000\000\000\360?\000\000\000\000\000\000\000\000\000\000\000\000\000\000\000\000\000\000\000\000\000\000\000\000\000\000\000\000\000\000\000\000\000\000\000\000\000\000\000\000\000\000\000\000\000\000\000\000\000\000\000\000\000\000\000\000\000\000\000\000\000\000\000\000\000\000\000\000\000\000\000\000\000\000\000\000\000\000\000\000\000\000\000\000\000\000\000\000\000\000\000\000\000\000\000\000\000\000\000\000\000\000;@\000\000\000\000\000\000\000@\000\000\000\000\000\000\000\000\000\000\000\000\000\000\010@\000\000\000\000\000\000\010@\000\000\000\000\000\000\360?\000\000\000\000\000\000\000\000\000\000\000\000\000\000\000\000\000\000\000\000\000\000\000@\000\000\000\000\000\000\034@\000\000\000\000\000\000\000@\000\000\000\000\000\000\000\000\000\000\000\000\000\000\000\000\000\000\000\000\000\000\000\000\000\000\000\000\000\000\000\000\000\000\000\000\000\000\000\000\000\000\000\000\000\000\000\000\000\000\000\000\000\000\000\000\000\000\000\000\000\000\000\000\000\000\000\000\000\000\000\000\000\000\000\000\000\000\000\000\000\000\000\000\000\000\000\000\000\000\000\000\000\000\000\000\000\000\000\000\000\000\000\000\000\000\000\000\000\0006@\000\000\000\000\000\000\010@\000\000\000\000\000\000\360?\000\000\000\000\000\000\000@\000\000\000\000\000\000\000\000\000\000\000\000\000\000\000\000\000\000\000\000\000\000\360?\000\000\000\000\000\000\010@\000\000\000\000\000\000\020@\000\000\000\000\000\000 @\000\000\000\000\000\000\020@\000\000\000\000\000\000\000\000\000\000\000\000\000\000\000\000\000\000\000\000\000\000\000\000\000\000\000\000\000\000\000\000\000\000\000\000\000\000\000\000\000\000\000\000\000\000\000\000\000\000\000\000\000\000\000\000\000\000\000\000\000\000\000\000\000\000\000\000\000\000\000\000\000\000\000\000\000\000\000\000\000\000\000\000\000\000\000\000\000\000\000\000\000\000\000\000\000\000\000\000\000\000\000\000\000\000\000\000\000\0006@\000\000\000\000\000\000\030@\000\000\000\000\000\000\010@\000\000\000\000\000\000\360?\000\000\000\000\000\000\020@\000\000\000\000\000\000\000\000\000\000\000\000\000\000\000\000\000\000\000\000\000\000\360?\000\000\000\000\000\000\000@\000\000\000\000\000\000$@\000\000\000\000\000\000\020@\000\000\000\000\000\000\000\000\000\000\000\000\000\000\000\000\000\000\000\000\000\000\000\000\000\000\000\000\000\000\000\000\000\000\000\000\000\000\000\000\000\000\000\000\000\000\000\000\000\000\000\000\000\000\000\000\000\000\000\000\000\000\000\000\000\000\000\000\000\000\000\000\000\000\000\000\000\000\000\000\000\000\000\000\000\000\000\000\000\000\000\000\000\000\000\000\000\000\000\000\000\000\000\000\000\000\000\000\000\000.@\000\000\000\000\000\000\020@\000\000\000\000\000\000\000@\000\000\000\000\000\000\360?\000\000\000\000\000\000\360?\000\000\000\000\000\000\000\000\000\000\000\000\000\000\000\000\000\000\000\000\000\000\360?\000\000\000\000\000\000\020@\000\000\000\000\000\000\"@\000\000\000\000\000\000\020@\000\000\000\000\000\000\000\000\000\000\000\000\000\000\000\000\000\000\000\000\000\000\000\000\000\000\000\000\000\000\000\000\000\000\000\000\000\000\000\000\000\000\000\000\000\000\000\000\000\000\000\000\000\000\000\000\000\000\000\000\000\000\000\000\000\000\000\000\000\000\000\000\000\000\000\000\000\000\000\000\000\000\000\000\000\000\000\000\000\000\000\000\000\000\000\000\000\000\000\000\000\000\000\000\000\000\000\000\000\0004@\000\000\000\000\000\000\360?\000\000\000\000\000\000\000\000\000\000\000\000\000\000\360?\000\000\000\000\000\000\000\000\000\000\000\000\000\000\010@\000\000\000\000\000\000\360?\000\000\000\000\000\000\000@\000\000\000\000\000\000\020@\000\000\000\000\000\000&@\000\000\000\000\000\000\000\000\000\000\000\000\000\000\000\000\000\000\000\000\000\000\000\000\000\000\000\000\000\000\000\000\000\000\000\000\000\000\000\000\000\000\000\000\000\000\000\000\000\000\000\000\000\000\000\000\000\000\000\000\000\000\000\000\000\000\000\000\000\000\000\000\000\000\000\000\000\000\000\000\000\000\000\000\000\000\000\000\000\000\000\000\000\000\000\000\000\000\000\000\000\000\000\000\000\000\000\000\000\000\000\000\000\000\000\000\000\000:@\000\000\000\000\000\000\360?\000\000\000\000\000\000\000@\000\000\000\000\000\000\000\000\000\000\000\000\000\000\360?\000\000\000\000\000\000\360?\000\000\000\000\000\000\000\000\000\000\000\000\000\000\360?\000\000\000\000\000\000\020@\000\000\000\000\000\000\030@\000\000\000\000\000\000\000@\000\000\000\000\000\000\000\000\000\000\000\000\000\000\000\000\000\000\000\000\000\000\000\000\000\000\000\000\000\000\000\000\000\000\000\000\000\000\000\000\000\000\000\000\000\000\000\000\000\000\000\000\000\000\000\000\000\000\000\000\000\000\000\000\000\000\000\000\000\000\000\000\000\000\000\000\000\000\000\000\000\000\000\000\000\000\000\000\000\000\000\000\000\000\000\000\000\000\000\000\000\000\000\000\000\000\000\000\000\0001@\000\000\000\000\000\000\000\000\000\000\000\000\000\000\000\000\000\000\000\000\000\000\000\000\000\000\000\000\000\000\000\000\000\000\000\000\000\000\360?\000\000\000\000\000\000\360?\000\000\000\000\000\000\000\000\000\000\000\000\000\000\360?\000\000\000\000\000\000\010@\000\000\000\000\000\000\360?\000\000\000\000\000\000\000\000\000\000\000\000\000\000\000\000\000\000\000\000\000\000\000\000\000\000\000\000\000\000\000\000\000\000\000\000\000\000\000\000\000\000\000\000\000\000\000\000\000\000\000\000\000\000\000\000\000\000\000\000\000\000\000\000\000\000\000\000\000\000\000\000\000\000\000\000\000\000\000\000\000\000\000\000\000\000\000\000\000\000\000\000\000\000\000\000\000\000\000\000\000\000\000\000\000\000\000\000\000\000@@\000\000\000\000\000\000\020@\000\000\000\000\000\000\360?\000\000\000\000\000\000\000\000\000\000\000\000\000\000\000@\000\000\000\000\000\000\000@\000\000\000\000\000\000\360?\000\000\000\000\000\000\000\000\000\000\000\000\000\000\010@\000\000\000\000\000\000\034@\000\000\000\000\000\000\360?\000\000\000\000\000\000\000\000\000\000\000\000\000\000\000\000\000\000\000\000\000\000\000\000\000\000\000\000\000\000\000\000\000\000\000\000\000\000\000\000\000\000\000\000\000\000\000\000\000\000\000\000\000\000\000\000\000\000\000\000\000\000\000\000\000\000\000\000\000\000\000\000\000\000\000\000\000\000\000\000\000\000\000\000\000\000\000\000\000\000\000\000\000\000\000\000\000\000\000\000\000\000\000\000\000\000\000\000\000\000\"@\000\000\000\000\000\000\000\000\000\000\000\000\000\000\000\000\000\000\000\000\000\000\360?\000\000\000\000\000\000\000\000\000\000\000\000\000\000\000\000\000\000\000\000\000\000\360?\000\000\000\000\000\000\000\000\000\000\000\000\000\000\360?\000\000\000\000\000\000\000@\000\000\000\000\000\000\000\000\000\000\000\000\000\000\000\000\000\000\000\000\000\000\000\000\000\000\000\000\000\000\000\000\000\000\000\000\000\000\000\000\000\000\000\000\000\000\000\000\000\000\000\000\000\000\000\000\000\000\000\000\000\000\000\000\000\000\000\000\000\000\000\000\000\000\000\000\000\000\000\000\000\000\000\000\000\000\000\000\000\000\000\000\000\000\000\000\000\000\000\000\000\000\000\000\000\000\000\000\000\000\000\000\000\000\000\000\000\000;@\000\000\000\000\000\000\000@\000\000\000\000\000\000\000\000\000\000\000\000\000\000\010@\000\000\000\000\000\000\360?\000\000\000\000\000\000\000@\000\000\000\000\000\000\010@\000\000\000\000\000\000\000@\000\000\000\000\000\000\000@\000\000\000\000\000\000\024@\000\000\000\000\000\000\000@\000\000\000\000\000\000\000\000\000\000\000\000\000\000\000\000\000\000\000\000\000\000\000\000\000\000\000\000\000\000\000\000\000\000\000\000\000\000\000\000\000\000\000\000\000\000\000\000\000\000\000\000\000\000\000\000\000\000\000\000\000\000\000\000\000\000\000\000\000\000\000\000\000\000\000\000\000\000\000\000\000\000\000\000\000\000\000\000\000\000\000\000\000\000\000\000\000\000\000\000\000\000\000\000\000\000\000\000\000\000.@\000\000\000\000\000\000\360?\000\000\000\000\000\000\360?\000\000\000\000\000\000\000\000\000\000\000\000\000\000\000\000\000\000\000\000\000\000\360?\000\000\000\000\000\000\360?\000\000\000\000\000\000\000@\000\000\000\000\000\000\000\000\000\000\000\000\000\000\360?\000\000\000\000\000\000\360?\000\000\000\000\000\000\000\000\000\000\000\000\000\000\000\000\000\000\000\000\000\000\000\000\000\000\000\000\000\000\000\000\000\000\000\000\000\000\000\000\000\000\000\000\000\000\000\000\000\000\000\000\000\000\000\000\000\000\000\000\000\000\000\000\000\000\000\000\000\000\000\000\000\000\000\000\000\000\000\000\000\000\000\000\000\000\000\000\000\000\000\000\000\000\000\000\000\000\000\000\000\000\000\000\000\000\000\000\000\000 @\000\000\000\000\000\000\360?\000\000\000\000\000\000\360?\000\000\000\000\000\000\000@\000\000\000\000\000\000\000@\000\000\000\000\000\000\000\000\000\000\000\000\000\000\000\000\000\000\000\000\000\000\360?\000\000\000\000\000\000\000@\000\000\000\000\000\000\360?\000\000\000\000\000\000\000@\000\000\000\000\000\000\000\000\000\000\000\000\000\000\000\000\000\000\000\000\000\000\000\000\000\000\000\000\000\000\000\000\000\000\000\000\000\000\000\000\000\000\000\000\000\000\000\000\000\000\000\000\000\000\000\000\000\000\000\000\000\000\000\000\000\000\000\000\000\000\000\000\000\000\000\000\000\000\000\000\000\000\000\000\000\000\000\000\000\000\000\000\000\000\000\000\000\000\000\000\000\000\000\000\000\000\000\000\000\000I@\000\000\000\000\000\000\024@\000\000\000\000\000\000\000@\000\000\000\000\000\000\000@\000\000\000\000\000\000\000@\000\000\000\000\000\000\000@\000\000\000\000\000\000\000@\000\000\000\000\000\000\000@\000\000\000\000\000\000\010@\000\000\000\000\000\000,@\000\000\000\000\000\000\000@\000\000\000\000\000\000\360?\000\000\000\000\000\000\000\000\000\000\000\000\000\000\000\000\000\000\000\000\000\000\000\000\000\000\000\000\000\000\000\000\000\000\000\000\000\000\000\000\000\000\000\000\000\000\000\000\000\000\000\000\000\000\000\000\000\000\000\000\000\000\000\000\000\000\000\000\000\000\000\000\000\000\000\000\000\000\000\000\000\000\000\000\000\000\000\000\000\000\000\000\000\000\000\000\000\000\000\000\000\000P@\000\000\000\000\000\000\020@\000\000\000\000\000\000\024@\000\000\000\000\000\000\000@\000\000\000\000\000\000\360?\000\000\000\000\000\000\024@\000\000\000\000\000\000\360?\000\000\000\000\000\000\010@\000\000\000\000\000\000\024@\000\000\000\000\000\0006@\000\000\000\000\000\000\020@\000\000\000\000\000\000\000\000\000\000\000\000\000\000\000\000\000\000\000\000\000\000\000\000\000\000\000\000\000\000\000\000\000\000\000\000\000\000\000\000\000\000\000\000\000\000\000\000\000\000\000\000\000\000\000\000\000\000\000\000\000\000\000\000\000\000\000\000\000\000\000\000\000\000\000\000\000\000\000\000\000\000\000\000\000\000\000\000\000\000\000\000\000\000\000\000\000\000\000\000\000\000\000\000\000\000\000\000\000\200L@\000\000\000\000\000\000\024@\000\000\000\000\000\000\024@\000\000\000\000\000\000\010@\000\000\000\000\000\000\360?\000\000\000\000\000\000\000\000\000\000\000\000\000\000\000\000\000\000\000\000\000\000\000@\000\000\000\000\000\000\024@\000\000\000\000\000\0008@\000\000\000\000\000\000\030@\000\000\000\000\000\000\000\000\000\000\000\000\000\000\000\000\000\000\000\000\000\000\000\000\000\000\000\000\000\000\000\000\000\000\000\000\000\000\000\000\000\000\000\000\000\000\000\000\000\000\000\000\000\000\000\000\000\000\000\000\000\000\000\000\000\000\000\000\000\000\000\000\000\000\000\000\000\000\000\000\000\000\000\000\000\000\000\000\000\000\000\000\000\000\000\000\000\000\000\000\000\000\000\000\000\000\000\000\000@Q@\000\000\000\000\000\000\000\000\000\000\000\000\000\000\010@\000\000\000\000\000\000\000@\000\000\000\000\000\000\010@\000\000\000\000\000\000\360?\000\000\000\000\000\000\360?\000\000\000\000\000\000\020@\000\000\000\000\000\000\024@\000\000\000\000\000\000<@\000\000\000\000\000\000\000@\000\000\000\000\000\000\000\000\000\000\000\000\000\000\000\000\000\000\000\000\000\000\000\000\000\000\000\000\000\000\000\000\000\000\000\000\000\000\000\000\000\000\000\000\000\000\000\000\000\000\000\000\000\000\000\000\000\000\000\000\000\000\000\000\000\000\000\000\000\000\000\000\000\000\000\000\000\000\000\000\000\000\000\000\000\000\000\000\000\000\000\000\000\000\000\000\000\000\000\000\000\000\000\000\000\000\000\000\000\000K@\000\000\000\000\000\000\360?\000\000\000\000\000\000\024@\000\000\000\000\000\000\000\000\000\000\000\000\000\000\020@\000\000\000\000\000\000\010@\000\000\000\000\000\000\000\000\000\000\000\000\000\000\360?\000\000\000\000\000\000\020@\000\000\000\000\000\0006@\000\000\000\000\000\000\020@\000\000\000\000\000\000\000\000\000\000\000\000\000\000\000\000\000\000\000\000\000\000\000\000\000\000\000\000\000\000\000\000\000\000\000\000\000\000\000\000\000\000\000\000\000\000\000\000\000\000\000\000\000\000\000\000\000\000\000\000\000\000\000\000\000\000\000\000\000\000\000\000\000\000\000\000\000\000\000\000\000\000\000\000\000\000\000\000\000\000\000\000\000\000\000\000\000\000\000\000\000\000\000\000\000\000\000\000\000\200P@\000\000\000\000\000\000\024@\000\000\000\000\000\000\010@\000\000\000\000\000\000\000\000\000\000\000\000\000\000\000\000\000\000\000\000\000\000\010@\000\000\000\000\000\000\010@\000\000\000\000\000\000\000@\000\000\000\000\000\000\360?\000\000\000\000\000\0000@\000\000\000\000\000\000\024@\000\000\000\000\000\000\000\000\000\000\000\000\000\000\000\000\000\000\000\000\000\000\000\000\000\000\000\000\000\000\000\000\000\000\000\000\000\000\000\000\000\000\000\000\000\000\000\000\000\000\000\000\000\000\000\000\000\000\000\000\000\000\000\000\000\000\000\000\000\000\000\000\000\000\000\000\000\000\000\000\000\000\000\000\000\000\000\000\000\000\000\000\000\000\000\000\000\000\000\000\000\000\000\000\000\000\000\000\000\200G@\000\000\000\000\000\000\010@\000\000\000\000\000\000\000@\000\000\000\000\000\000\000\000\000\000\000\000\000\000\000\000\000\000\000\000\000\000\360?\000\000\000\000\000\000\000\000\000\000\000\000\000\000\000\000\000\000\000\000\000\000\010@\000\000\000\000\000\000&@\000\000\000\000\000\000\024@\000\000\000\000\000\000\000\000\000\000\000\000\000\000\000\000\000\000\000\000\000\000\000\000\000\000\000\000\000\000\000\000\000\000\000\000\000\000\000\000\000\000\000\000\000\000\000\000\000\000\000\000\000\000\000\000\000\000\000\000\000\000\000\000\000\000\000\000\000\000\000\000\000\000\000\000\000\000\000\000\000\000\000\000\000\000\000\000\000\000\000\000\000\000\000\000\000\000\000\000\000\000\000\000\000\000\000\000\000\000H@\000\000\000\000\000\000\020@\000\000\000\000\000\000\360?\000\000\000\000\000\000\360?\000\000\000\000\000\000\000\000\000\000\000\000\000\000\360?\000\000\000\000\000\000\360?\000\000\000\000\000\000\000@\000\000\000\000\000\000\000@\000\000\000\000\000\0002@\000\000\000\000\000\000\024@\000\000\000\000\000\000\000\000\000\000\000\000\000\000\000\000\000\000\000\000\000\000\000\000\000\000\000\000\000\000\000\000\000\000\000\000\000\000\000\000\000\000\000\000\000\000\000\000\000\000\000\000\000\000\000\000\000\000\000\000\000\000\000\000\000\000\000\000\000\000\000\000\000\000\000\000\000\000\000\000\000\000\000\000\000\000\000\000\000\000\000\000\000\000\000\000\000\000\000\000\000\000\000\000\000\000\000\000\000\200F@\000\000\000\000\000\000\010@\000\000\000\000\000\000\024@\000\000\000\000\000\000\024@\000\000\000\000\000\000\360?\000\000\000\000\000\000\000\000\000\000\000\000\000\000\360?\000\000\000\000\000\000\010@\000\000\000\000\000\000\360?\000\000\000\000\000\0000@\000\000\000\000\000\000\360?\000\000\000\000\000\000\000\000\000\000\000\000\000\000\000\000\000\000\000\000\000\000\000\000\000\000\000\000\000\000\000\000\000\000\000\000\000\000\000\000\000\000\000\000\000\000\000\000\000\000\000\000\000\000\000\000\000\000\000\000\000\000\000\000\000\000\000\000\000\000\000\000\000\000\000\000\000\000\000\000\000\000\000\000\000\000\000\000\000\000\000\000\000\000\000\000\000\000\000\000\000\000\000\000\000\000\000\000\000\000E@\000\000\000\000\000\000\000@\000\000\000\000\000\000\000\000\000\000\000\000\000\000\010@\000\000\000\000\000\000\000\000\000\000\000\000\000\000\360?\000\000\000\000\000\000\020@\000\000\000\000\000\000\010@\000\000\000\000\000\000\010@\000\000\000\000\000\000\"@\000\000\000\000\000\000\010@\000\000\000\000\000\000\000\000\000\000\000\000\000\000\000\000\000\000\000\000\000\000\000\000\000\000\000\000\000\000\000\000\000\000\000\000\000\000\000\000\000\000\000\000\000\000\000\000\000\000\000\000\000\000\000\000\000\000\000\000\000\000\000\000\000\000\000\000\000\000\000\000\000\000\000\000\000\000\000\000\000\000\000\000\000\000\000\000\000\000\000\000\000\000\000\000\000\000\000\000\000\000\000\000\000\000\000\000\000\000C@\000\000\000\000\000\000\000@\000\000\000\000\000\000\024@\000\000\000\000\000\000\000@\000\000\000\000\000\000\000\000\000\000\000\000\000\000\000\000\000\000\000\000\000\000\360?\000\000\000\000\000\000\000@\000\000\000\000\000\000\020@\000\000\000\000\000\000\034@\000\000\000\000\000\000\000\000\000\000\000\000\000\000\000\000\000\000\000\000\000\000\000\000\000\000\000\000\000\000\000\000\000\000\000\000\000\000\000\000\000\000\000\000\000\000\000\000\000\000\000\000\000\000\000\000\000\000\000\000\000\000\000\000\000\000\000\000\000\000\000\000\000\000\000\000\000\000\000\000\000\000\000\000\000\000\000\000\000\000\000\000\000\000\000\000\000\000\000\000\000\000\000\000\000\000\000\000\000\000\000\000\000\000\000\000\000\000>@\000\000\000\000\000\000\010@\000\000\000\000\000\000\360?\000\000\000\000\000\000\000\000\000\000\000\000\000\000\360?\000\000\000\000\000\000\000\000\000\000\000\000\000\000\360?\000\000\000\000\000\000\000@\000\000\000\000\000\000\000@\000\000\000\000\000\000\"@\000\000\000\000\000\000\020@\000\000\000\000\000\000\360?\000\000\000\000\000\000\000\000\000\000\000\000\000\000\000\000\000\000\000\000\000\000\000\000\000\000\000\000\000\000\000\000\000\000\000\000\000\000\000\000\000\000\000\000\000\000\000\000\000\000\000\000\000\000\000\000\000\000\000\000\000\000\000\000\000\000\000\000\000\000\000\000\000\000\000\000\000\000\000\000\000\000\000\000\000\000\000\000\000\000\000\000\000\000\000\000\000\000\000\000\000\000D@\000\000\000\000\000\000\360?\000\000\000\000\000\000\000\000\000\000\000\000\000\000\360?\000\000\000\000\000\000\360?\000\000\000\000\000\000\360?\000\000\000\000\000\000\000@\000\000\000\000\000\000\000\000\000\000\000\000\000\000\000@\000\000\000\000\000\000,@\000\000\000\000\000\000\024@\000\000\000\000\000\000\000\000\000\000\000\000\000\000\000\000\000\000\000\000\000\000\000\000\000\000\000\000\000\000\000\000\000\000\000\000\000\000\000\000\000\000\000\000\000\000\000\000\000\000\000\000\000\000\000\000\000\000\000\000\000\000\000\000\000\000\000\000\000\000\000\000\000\000\000\000\000\000\000\000\000\000\000\000\000\000\000\000\000\000\000\000\000\000\000\000\000\000\000\000\000\000\000\000\000\000\000\000\000\000:@\000\000\000\000\000\000\000@\000\000\000\000\000\000\000@\000\000\000\000\000\000\000\000\000\000\000\000\000\000\360?\000\000\000\000\000\000\360?\000\000\000\000\000\000\000\000\000\000\000\000\000\000\360?\000\000\000\000\000\000\024@\000\000\000\000\000\000(@\000\000\000\000\000\000\010@\000\000\000\000\000\000\000\000\000\000\000\000\000\000\000\000\000\000\000\000\000\000\000\000\000\000\000\000\000\000\000\000\000\000\000\000\000\000\000\000\000\000\000\000\000\000\000\000\000\000\000\000\000\000\000\000\000\000\000\000\000\000\000\000\000\000\000\000\000\000\000\000\000\000\000\000\000\000\000\000\000\000\000\000\000\000\000\000\000\000\000\000\000\000\000\000\000\000\000\000\000\000\000\000\000\000\000\000\000\000=@\000\000\000\000\000\000\000\000\000\000\000\000\000\000\360?\000\000\000\000\000\000\000\000\000\000\000\000\000\000\010@\000\000\000\000\000\000\360?\000\000\000\000\000\000\000\000\000\000\000\000\000\000\020@\000\000\000\000\000\000\020@\000\000\000\000\000\000,@\000\000\000\000\000\000 @\000\000\000\000\000\000\000\000\000\000\000\000\000\000\000\000\000\000\000\000\000\000\000\000\000\000\000\000\000\000\000\000\000\000\000\000\000\000\000\000\000\000\000\000\000\000\000\000\000\000\000\000\000\000\000\000\000\000\000\000\000\000\000\000\000\000\000\000\000\000\000\000\000\000\000\000\000\000\000\000\000\000\000\000\000\000\000\000\000\000\000\000\000\000\000\000\000\000\000\000\000\000\000\000\000\000\000\000\000\000=@\000\000\000\000\000\000\000@\000\000\000\000\000\000\360?\000\000\000\000\000\000\360?\000\000\000\000\000\000\000\000\000\000\000\000\000\000\360?\000\000\000\000\000\000\000\000\000\000\000\000\000\000\000@\000\000\000\000\000\000\020@\000\000\000\000\000\000\010@\000\000\000\000\000\000\020@\000\000\000\000\000\000\000@\000\000\000\000\000\000\000\000\000\000\000\000\000\000\000\000\000\000\000\000\000\000\000\000\000\000\000\000\000\000\000\000\000\000\000\000\000\000\000\000\000\000\000\000\000\000\000\000\000\000\000\000\000\000\000\000\000\000\000\000\000\000\000\000\000\000\000\000\000\000\000\000\000\000\000\000\000\000\000\000\000\000\000\000\000\000\000\000\000\000\000\000\000\000\000\000\000\000\000\000\000\0008@\000\000\000\000\000\000\360?\000\000\000\000\000\000\010@\000\000\000\000\000\000\360?\000\000\000\000\000\000\000@\000\000\000\000\000\000\000\000\000\000\000\000\000\000\010@\000\000\000\000\000\000\360?\000\000\000\000\000\000\000\000\000\000\000\000\000\000$@\000\000\000\000\000\000\010@\000\000\000\000\000\000\000\000\000\000\000\000\000\000\000\000\000\000\000\000\000\000\000\000\000\000\000\000\000\000\000\000\000\000\000\000\000\000\000\000\000\000\000\000\000\000\000\000\000\000\000\000\000\000\000\000\000\000\000\000\000\000\000\000\000\000\000\000\000\000\000\000\000\000\000\000\000\000\000\000\000\000\000\000\000\000\000\000\000\000\000\000\000\000\000\000\000\000\000\000\000\000\000\000\000\000\000\000\000\0004@\000\000\000\000\000\000\020@\000\000\000\000\000\000\000@\000\000\000\000\000\000\000\000\000\000\000\000\000\000\360?\000\000\000\000\000\000\360?\000\000\000\000\000\000\000@\000\000\000\000\000\000\020@\000\000\000\000\000\000\010@\000\000\000\000\000\000 @\000\000\000\000\000\000\000@\000\000\000\000\000\000\000\000\000\000\000\000\000\000\000\000\000\000\000\000\000\000\000\000\000\000\000\000\000\000\000\000\000\000\000\000\000\000\000\000\000\000\000\000\000\000\000\000\000\000\000\000\000\000\000\000\000\000\000\000\000\000\000\000\000\000\000\000\000\000\000\000\000\000\000\000\000\000\000\000\000\000\000\000\000\000\000\000\000\000\000\000\000\000\000\000\000\000\000\000\000\000\000\000\000\000\000\000\000\0006@\000\000\000\000\000\000\000@\000\000\000\000\000\000\010@\000\000\000\000\000\000\360?\000\000\000\000\000\000\000\000\000\000\000\000\000\000\360?\000\000\000\000\000\000\000@\000\000\000\000\000\000\010@\000\000\000\000\000\000\000@\000\000\000\000\000\000$@\000\000\000\000\000\000\000@\000\000\000\000\000\000\000\000\000\000\000\000\000\000\000\000\000\000\000\000\000\000\000\000\000\000\000\000\000\000\000\000\000\000\000\000\000\000\000\000\000\000\000\000\000\000\000\000\000\000\000\000\000\000\000\000\000\000\000\000\000\000\000\000\000\000\000\000\000\000\000\000\000\000\000\000\000\000\000\000\000\000\000\000\000\000\000\000\000\000\000\000\000\000\000\000\000\000\000\000\000\000\000\000\000\000\000\000\000\0005@\000\000\000\000\000\000\360?\000\000\000\000\000\000\000\000\000\000\000\000\000\000\000\000\000\000\000\000\000\000\360?\000\000\000\000\000\000\360?\000\000\000\000\000\000\360?\000\000\000\000\000\000\360?\000\000\000\000\000\000\360?\000\000\000\000\000\000\030@\000\000\000\000\000\000\010@\000\000\000\000\000\000\000\000\000\000\000\000\000\000\000\000\000\000\000\000\000\000\000\000\000\000\000\000\000\000\000\000\000\000\000\000\000\000\000\000\000\000\000\000\000\000\000\000\000\000\000\000\000\000\000\000\000\000\000\000\000\000\000\000\000\000\000\000\000\000\000\000\000\000\000\000\000\000\000\000\000\000\000\000\000\000\000\000\000\000\000\000\000\000\000\000\000\000\000\000\000\000\000\000\000\000\000\000\000\0005@\000\000\000\000\000\000\000@\000\000\000\000\000\000\360?\000\000\000\000\000\000\020@\000\000\000\000\000\000\000\000\000\000\000\000\000\000\000\000\000\000\000\000\000\000\000@\000\000\000\000\000\000\000@\000\000\000\000\000\000\010@\000\000\000\000\000\000\000@\000\000\000\000\000\000\000@\000\000\000\000\000\000\000\000\000\000\000\000\000\000\000\000\000\000\000\000\000\000\000\000\000\000\000\000\000\000\000\000\000\000\000\000\000\000\000\000\000\000\000\000\000\000\000\000\000\000\000\000\000\000\000\000\000\000\000\000\000\000\000\000\000\000\000\000\000\000\000\000\000\000\000\000\000\000\000\000\000\000\000\000\000\000\000\000\000\000\000\000\000\000\000\000\000\000\000\000\000\000\000\000\000\000\000\000\000\000,@\000\000\000\000\000\000\020@\000\000\000\000\000\000\360?\000\000\000\000\000\000\360?\000\000\000\000\000\000\000\000\000\000\000\000\000\000\000\000\000\000\000\000\000\000\000\000\000\000\000\000\000\000\000\000\000\000\000\000\000\000\000\000\000\000\000\000\000\000\024@\000\000\000\000\000\000\000\000\000\000\000\000\000\000\000\000\000\000\000\000\000\000\000\000\000\000\000\000\000\000\000\000\000\000\000\000\000\000\000\000\000\000\000\000\000\000\000\000\000\000\000\000\000\000\000\000\000\000\000\000\000\000\000\000\000\000\000\000\000\000\000\000\000\000\000\000\000\000\000\000\000\000\000\000\000\000\000\000\000\000\000\000\000\000\000\000\000\000\000\000\000\000\000\000\000\000\000\000\000\000\000\000\000\000\000\000\000\0009@\000\000\000\000\000\000\360?\000\000\000\000\000\000\000@\000\000\000\000\000\000\360?\000\000\000\000\000\000\360?\000\000\000\000\000\000\360?\000\000\000\000\000\000\010@\000\000\000\000\000\000\360?\000\000\000\000\000\000\000@\000\000\000\000\000\000\010@\000\000\000\000\000\000\360?\000\000\000\000\000\000\000\000\000\000\000\000\000\000\000\000\000\000\000\000\000\000\000\000\000\000\000\000\000\000\000\000\000\000\000\000\000\000\000\000\000\000\000\000\000\000\000\000\000\000\000\000\000\000\000\000\000\000\000\000\000\000\000\000\000\000\000\000\000\000\000\000\000\000\000\000\000\000\000\000\000\000\000\000\000\000\000\000\000\000\000\000\000\000\000\000\000\000\000\000\000\000\000\000\000\000\000\000\000\0003@\000\000\000\000\000\000\020@\000\000\000\000\000\000\010@\000\000\000\000\000\000\010@\000\000\000\000\000\000\000@\000\000\000\000\000\000\000@\000\000\000\000\000\000\000@\000\000\000\000\000\000\360?\000\000\000\000\000\000\020@\000\000\000\000\000\000\024@\000\000\000\000\000\000\360?\000\000\000\000\000\000\000\000\000\000\000\000\000\000\000\000\000\000\000\000\000\000\000\000\000\000\000\000\000\000\000\000\000\000\000\000\000\000\000\000\000\000\000\000\000\000\000\000\000\000\000\000\000\000\000\000\000\000\000\000\000\000\000\000\000\000\000\000\000\000\000\000\000\000\000\000\000\000\000\000\000\000\000\000\000\000\000\000\000\000\000\000\000\000\000\000\000\000\000\000\000\000\000\000\000\000\000\000\000\000;@\000\000\000\000\000\000\360?\000\000\000\000\000\000\000\000\000\000\000\000\000\000\000@\000\000\000\000\000\000\000\000\000\000\000\000\000\000\000\000\000\000\000\000\000\000\000\000\000\000\000\000\000\000\010@\000\000\000\000\000\000\000\000\000\000\000\000\000\000\024@\000\000\000\000\000\000\000\000\000\000\000\000\000\000\360?\000\000\000\000\000\000\000\000\000\000\000\000\000\000\000\000\000\000\000\000\000\000\000\000\000\000\000\000\000\000\000\000\000\000\000\000\000\000\000\000\000\000\000\000\000\000\000\000\000\000\000\000\000\000\000\000\000\000\000\000\000\000\000\000\000\000\000\000\000\000\000\000\000\000\000\000\000\000\000\000\000\000\000\000\000\000\000\000\000\000\000\000\000\000\000\000\000\000\000\000\000\300Q@\000\000\000\000\000\000\024@\000\000\000\000\000\000\024@\000\000\000\000\000\000\020@\000\000\000\000\000\000\010@\000\000\000\000\000\000\024@\000\000\000\000\000\000\000@\000\000\000\000\000\000\360?\000\000\000\000\000\000\020@\000\000\000\000\000\0008@\000\000\000\000\000\000\024@\000\000\000\000\000\000\360?\000\000\000\000\000\000\000\000\000\000\000\000\000\000\000\000\000\000\000\000\000\000\000\000\000\000\000\000\000\000\000\000\000\000\000\000\000\000\000\000\000\000\000\000\000\000\000\000\000\000\000\000\000\000\000\000\000\000\000\000\000\000\000\000\000\000\000\000\000\000\000\000\000\000\000\000\000\000\000\000\000\000\000\000\000\000\000\000\000\000\000\000\000\000\000\000\000\000\000\000\000\200J@\000\000\000\000\000\000\000@\000\000\000\000\000\000\010@\000\000\000\000\000\000\010@\000\000\000\000\000\000\010@\000\000\000\000\000\000\000@\000\000\000\000\000\000\360?\000\000\000\000\000\000\010@\000\000\000\000\000\000\360?\000\000\000\000\000\0005@\000\000\000\000\000\000\024@\000\000\000\000\000\000\000\000\000\000\000\000\000\000\000\000\000\000\000\000\000\000\000\000\000\000\000\000\000\000\000\000\000\000\000\000\000\000\000\000\000\000\000\000\000\000\000\000\000\000\000\000\000\000\000\000\000\000\000\000\000\000\000\000\000\000\000\000\000\000\000\000\000\000\000\000\000\000\000\000\000\000\000\000\000\000\000\000\000\000\000\000\000\000\000\000\000\000\000\000\000\000\000\000\000\000\000\000\000\000M@\000\000\000\000\000\000\360?\000\000\000\000\000\000\010@\000\000\000\000\000\000\020@\000\000\000\000\000\000\000@\000\000\000\000\000\000\000@\000\000\000\000\000\000\360?\000\000\000\000\000\000\020@\000\000\000\000\000\000\034@\000\000\000\000\000\000,@\000\000\000\000\000\000\010@\000\000\000\000\000\000\000\000\000\000\000\000\000\000\000\000\000\000\000\000\000\000\000\000\000\000\000\000\000\000\000\000\000\000\000\000\000\000\000\000\000\000\000\000\000\000\000\000\000\000\000\000\000\000\000\000\000\000\000\000\000\000\000\000\000\000\000\000\000\000\000\000\000\000\000\000\000\000\000\000\000\000\000\000\000\000\000\000\000\000\000\000\000\000\000\000\000\000\000\000\000\000\000\000\000\000\000\000\000\200P@\000\000\000\000\000\000\360?\000\000\000\000\000\000\034@\000\000\000\000\000\000\360?\000\000\000\000\000\000\000@\000\000\000\000\000\000\010@\000\000\000\000\000\000\010@\000\000\000\000\000\000\360?\000\000\000\000\000\000\034@\000\000\000\000\000\0007@\000\000\000\000\000\000\010@\000\000\000\000\000\000\000\000\000\000\000\000\000\000\000\000\000\000\000\000\000\000\000\000\000\000\000\000\000\000\000\000\000\000\000\000\000\000\000\000\000\000\000\000\000\000\000\000\000\000\000\000\000\000\000\000\000\000\000\000\000\000\000\000\000\000\000\000\000\000\000\000\000\000\000\000\000\000\000\000\000\000\000\000\000\000\000\000\000\000\000\000\000\000\000\000\000\000\000\000\000\000\000\000\000\000\000\000\000\200L@\000\000\000\000\000\000\024@\000\000\000\000\000\000\020@\000\000\000\000\000\000\360?\000\000\000\000\000\000\010@\000\000\000\000\000\000\000\000\000\000\000\000\000\000\020@\000\000\000\000\000\000\000\000\000\000\000\000\000\000\024@\000\000\000\000\000\000(@\000\000\000\000\000\000\030@\000\000\000\000\000\000\000\000\000\000\000\000\000\000\000\000\000\000\000\000\000\000\000\000\000\000\000\000\000\000\000\000\000\000\000\000\000\000\000\000\000\000\000\000\000\000\000\000\000\000\000\000\000\000\000\000\000\000\000\000\000\000\000\000\000\000\000\000\000\000\000\000\000\000\000\000\000\000\000\000\000\000\000\000\000\000\000\000\000\000\000\000\000\000\000\000\000\000\000\000\000\000\000\000\000\000\000\000\000\000M@\000\000\000\000\000\000\010@\000\000\000\000\000\000\030@\000\000\000\000\000\000\010@\000\000\000\000\000\000\360?\000\000\000\000\000\000\000\000\000\000\000\000\000\000\360?\000\000\000\000\000\000\000@\000\000\000\000\000\000\024@\000\000\000\000\000\000.@\000\000\000\000\000\000\034@\000\000\000\000\000\000\360?\000\000\000\000\000\000\000\000\000\000\000\000\000\000\000\000\000\000\000\000\000\000\000\000\000\000\000\000\000\000\000\000\000\000\000\000\000\000\000\000\000\000\000\000\000\000\000\000\000\000\000\000\000\000\000\000\000\000\000\000\000\000\000\000\000\000\000\000\000\000\000\000\000\000\000\000\000\000\000\000\000\000\000\000\000\000\000\000\000\000\000\000\000\000\000\000\000\000\000\000\000\000G@\000\000\000\000\000\000\010@\000\000\000\000\000\000\020@\000\000\000\000\000\000\360?\000\000\000\000\000\000\020@\000\000\000\000\000\000\000\000\000\000\000\000\000\000\010@\000\000\000\000\000\000\000@\000\000\000\000\000\000\010@\000\000\000\000\000\000*@\000\000\000\000\000\000\000@\000\000\000\000\000\000\000\000\000\000\000\000\000\000\000\000\000\000\000\000\000\000\000\000\000\000\000\000\000\000\000\000\000\000\000\000\000\000\000\000\000\000\000\000\000\000\000\000\000\000\000\000\000\000\000\000\000\000\000\000\000\000\000\000\000\000\000\000\000\000\000\000\000\000\000\000\000\000\000\000\000\000\000\000\000\000\000\000\000\000\000\000\000\000\000\000\000\000\000\000\000\000\000\000\000\000\000\000\000\200E@\000\000\000\000\000\000\000@\000\000\000\000\000\000\010@\000\000\000\000\000\000\360?\000\000\000\000\000\000\000\000\000\000\000\000\000\000\000@\000\000\000\000\000\000\000\000\000\000\000\000\000\000\010@\000\000\000\000\000\000\024@\000\000\000\000\000\0001@\000\000\000\000\000\000\010@\000\000\000\000\000\000\000\000\000\000\000\000\000\000\000\000\000\000\000\000\000\000\000\000\000\000\000\000\000\000\000\000\000\000\000\000\000\000\000\000\000\000\000\000\000\000\000\000\000\000\000\000\000\000\000\000\000\000\000\000\000\000\000\000\000\000\000\000\000\000\000\000\000\000\000\000\000\000\000\000\000\000\000\000\000\000\000\000\000\000\000\000\000\000\000\000\000\000\000\000\000\000\000\000\000\000\000\000\000\000<@\000\000\000\000\000\000\010@\000\000\000\000\000\000\360?\000\000\000\000\000\000\360?\000\000\000\000\000\000\360?\000\000\000\000\000\000\020@\000\000\000\000\000\000\000\000\000\000\000\000\000\000\360?\000\000\000\000\000\000\360?\000\000\000\000\000\000\024@\000\000\000\000\000\000\360?\000\000\000\000\000\000\360?\000\000\000\000\000\000\000\000\000\000\000\000\000\000\000\000\000\000\000\000\000\000\000\000\000\000\000\000\000\000\000\000\000\000\000\000\000\000\000\000\000\000\000\000\000\000\000\000\000\000\000\000\000\000\000\000\000\000\000\000\000\000\000\000\000\000\000\000\000\000\000\000\000\000\000\000\000\000\000\000\000\000\000\000\000\000\000\000\000\000\000\000\000\000\000\000"
          }
        }
      }
    }
    node_def {
      name: "TensorSliceDataset/tensors/component_1"
      op: "Const"
      attr {
        key: "dtype"
        value {
          type: DT_DOUBLE
        }
      }
      attr {
        key: "value"
        value {
          tensor {
            dtype: DT_DOUBLE
            tensor_shape {
              dim {
                size: 70
              }
            }
            tensor_content: "\000\000\000\000\000\200e@\000\000\000\000\000@f@\000\000\000\000\000 j@\000\000\000\000\000@j@\000\000\000\000\000`f@\000\000\000\000\000\200f@\000\000\000\000\000`f@\000\000\000\000\000`f@\000\000\000\000\000@b@\000\000\000\000\000\200M@\000\000\000\000\000\300]@\000\000\000\000\000 j@\000\000\000\000\000@j@\000\000\000\000\000@f@\000\000\000\000\000@j@\000\000\000\000\000\200f@\000\000\000\000\000`f@\000\000\000\000\000\240b@\000\000\000\000\000\240b@\000\000\000\000\000\300b@\000\000\000\000\000\200b@\000\000\000\000\000\240b@\000\000\000\000\000\200b@\000\000\000\000\000\240b@\000\000\000\000\000\300]@\000\000\000\000\000@b@\000\000\000\000\000@]@\000\000\000\000\000\000Y@\000\000\000\000\000\300]@\000\000\000\000\000\000^@\000\000\000\000\000@P@\000\000\000\000\000@]@\000\000\000\000\000@R@\000\000\000\000\000@]@\000\000\000\000\000@V@\000\000\000\000\000\200T@\000\000\000\000\000@d@\000\000\000\000\000@j@\000\000\000\000\000`f@\000\000\000\000\000 j@\000\000\000\000\000\200f@\000\000\000\000\000`f@\000\000\000\000\000\240b@\000\000\000\000\000\200f@\000\000\000\000\000\240b@\000\000\000\000\000\300b@\000\000\000\000\000\200b@\000\000\000\000\000\000^@\000\000\000\000\000\240b@\000\000\000\000\000\300]@\000\000\000\000\000\240b@\000\000\000\000\000\000]@\000\000\000\000\000\300]@\000\000\000\000\000\300]@\000\000\000\000\000\300]@\000\000\000\000\000@V@\000\000\000\000\000\300]@\000\000\000\000\000@S@\000\000\000\000\000@\\@\000\000\000\000\000\300]@\000\000\000\000\000@V@\000\000\000\000\000\340m@\000\000\000\000\000\200f@\000\000\000\000\000`f@\000\000\000\000\000 j@\000\000\000\000\000`f@\000\000\000\000\000\200f@\000\000\000\000\000\240b@\000\000\000\000\000\240b@\000\000\000\000\000@V@"
          }
        }
      }
    }
    node_def {
      name: "TensorSliceDataset"
      op: "TensorSliceDataset"
      input: "TensorSliceDataset/tensors/component_0:output:0"
      input: "TensorSliceDataset/tensors/component_1:output:0"
      attr {
        key: "Toutput_types"
        value {
          list {
            type: DT_DOUBLE
            type: DT_DOUBLE
          }
        }
      }
      attr {
        key: "output_shapes"
        value {
          list {
            shape {
              dim {
                size: 24
              }
            }
            shape {
            }
          }
        }
      }
    }
    node_def {
      name: "ShuffleDataset/buffer_size"
      op: "Const"
      attr {
        key: "dtype"
        value {
          type: DT_INT64
        }
      }
      attr {
        key: "value"
        value {
          tensor {
            dtype: DT_INT64
            tensor_shape {
            }
            int64_val: 70
          }
        }
      }
    }
    node_def {
      name: "ShuffleDataset/seed"
      op: "Const"
      attr {
        key: "dtype"
        value {
          type: DT_INT64
        }
      }
      attr {
        key: "value"
        value {
          tensor {
            dtype: DT_INT64
            tensor_shape {
            }
            int64_val: 0
          }
        }
      }
    }
    node_def {
      name: "ShuffleDataset/seed2"
      op: "Const"
      attr {
        key: "dtype"
        value {
          type: DT_INT64
        }
      }
      attr {
        key: "value"
        value {
          tensor {
            dtype: DT_INT64
            tensor_shape {
            }
            int64_val: 0
          }
        }
      }
    }
    node_def {
      name: "ShuffleDataset"
      op: "ShuffleDataset"
      input: "TensorSliceDataset:handle:0"
      input: "ShuffleDataset/buffer_size:output:0"
      input: "ShuffleDataset/seed:output:0"
      input: "ShuffleDataset/seed2:output:0"
      attr {
        key: "output_shapes"
        value {
          list {
            shape {
              dim {
                size: 24
              }
            }
            shape {
            }
          }
        }
      }
      attr {
        key: "output_types"
        value {
          list {
            type: DT_DOUBLE
            type: DT_DOUBLE
          }
        }
      }
      attr {
        key: "reshuffle_each_iteration"
        value {
          b: true
        }
      }
    }
    node_def {
      name: "BatchDataset/batch_size"
      op: "Const"
      attr {
        key: "dtype"
        value {
          type: DT_INT64
        }
      }
      attr {
        key: "value"
        value {
          tensor {
            dtype: DT_INT64
            tensor_shape {
            }
            int64_val: 5
          }
        }
      }
    }
    node_def {
      name: "BatchDataset"
      op: "BatchDataset"
      input: "ShuffleDataset:handle:0"
      input: "BatchDataset/batch_size:output:0"
      attr {
        key: "output_shapes"
        value {
          list {
            shape {
              dim {
                size: -1
              }
              dim {
                size: 24
              }
            }
